<pad>	0
<unk>	0
<s>	0
</s>	0
<mask>	0
<sep>	0
<cls>	0
中国	-0
19	-1
20	-2
经济	-3
00	-4
政府	-5
地区	-6
国家	-7
一个	-8
中华	-9
201	-10
研究	-11
发展	-12
200	-13
人民	-14
台湾	-15
世界	-16
社会	-17
文化	-18
主要	-19
美国	-20
人口	-21
),	-22
成为	-23
。19	-24
以及	-25
其中	-26
使用	-27
开始	-28
10	-29
系统	-30
主义	-31
可以	-32
包括	-33
法国	-34
全国	-35
认为	-36
上海	-37
政治	-38
时期	-39
历史	-40
部分	-41
其他	-42
民族	-43
共产	-44
18	-45
12	-46
维基	-47
in	-48
民国	-49
科学	-50
第一	-51
世纪	-52
)。	-53
共和	-54
百科	-55
城市	-56
)、	-57
影响	-58
共产党	-59
北京	-60
日本	-61
天津	-62
运动	-63
代表	-64
语言	-65
国际	-66
重要	-67
中央	-68
进行	-69
大学	-70
共和国	-71
中华民国	-72
11	-73
之一	-74
理论	-75
重庆	-76
建立	-77
许多	-78
▁19	-79
问题	-80
教育	-81
作为	-82
由于	-83
不同	-84
维基百科	-85
一些	-86
同时	-87
理学	-88
这些	-89
大的	-90
中国共产党	-91
没有	-92
蒙古	-93
国民	-94
宗教	-95
年代	-96
之后	-97
自由	-98
中心	-99
人民共和国	-100
铁路	-101
革命	-102
方面	-103
计算	-104
电影	-105
中华人民共和国	-106
称为	-107
战争	-108
香港	-109
16	-110
生产	-111
例如	-112
深圳	-113
出现	-114
自然	-115
公里	-116
当时	-117
成立	-118
万人	-119
大陆	-120
行政	-121
组织	-122
”,	-123
因为	-124
第二	-125
17	-126
哲学	-127
er	-128
因此	-129
199	-130
15	-131
增长	-132
关系	-133
对于	-134
%,	-135
工业	-136
尼亚	-137
通过	-138
an	-139
的一	-140
根据	-141
13	-142
音乐	-143
”。	-144
阿尔	-145
委员	-146
形成	-147
技术	-148
他们	-149
▁在	-150
公司	-151
领域	-152
可能	-153
山东	-154
面积	-155
」,	-156
文学	-157
提出	-158
人类	-159
年的	-160
上的	-161
传统	-162
并且	-163
活动	-164
数学	-165
14	-166
是中国	-167
or	-168
中的	-169
目前	-170
地方	-171
拥有	-172
获得	-173
时代	-174
%。	-175
现代	-176
计划	-177
自治	-178
自己	-179
之间	-180
浙江	-181
内容	-182
已经	-183
产业	-184
属于	-185
50	-186
思想	-187
正式	-188
Lin	-189
ux	-190
欧洲	-191
存在	-192
委员会	-193
巴尼亚	-194
阿尔巴尼亚	-195
四川	-196
》、	-197
制度	-198
著名	-199
提供	-200
政策	-201
000	-202
Linux	-203
30	-204
但是	-205
所有	-206
」。	-207
方式	-208
一种	-209
也是	-210
最高	-211
国旗	-212
基础	-213
工作	-214
德国	-215
设计	-216
大量	-217
一般	-218
方法	-219
苏联	-220
军事	-221
市场	-222
产生	-223
这个	-224
东北	-225
就是	-226
on	-227
人的	-228
改革	-229
经济学	-230
不过	-231
英国	-232
另外	-233
广东	-234
开发	-235
超过	-236
艺术	-237
软件	-238
形式	-239
具有	-240
逐渐	-241
位于	-242
机场	-243
..	-244
计算机	-245
发生	-246
为主	-247
达到	-248
.5	-249
时间	-250
资源	-251
》、《	-252
。201	-253
分为	-254
统一	-255
使得	-256
罗斯	-257
设立	-258
分别	-259
平均	-260
60	-261
》,	-262
会议	-263
然而	-264
法律	-265
统治	-266
194	-267
来的	-268
zh	-269
亿元	-270
大多	-271
少数	-272
80	-273
结构	-274
全省	-275
最早	-276
还有	-277
en	-278
总统	-279
西方	-280
基本	-281
内蒙古	-282
唐朝	-283
at	-284
决定	-285
增加	-286
电视	-287
的人	-288
这种	-289
成功	-290
地位	-291
开放	-292
领导	-293
期间	-294
条目	-295
能够	-296
鲁迅	-297
农业	-298
规模	-299
程序	-300
中山	-301
高速	-302
中文	-303
学生	-304
受到	-305
联合	-306
支持	-307
电脑	-308
进入	-309
分布	-310
机构	-311
重要的	-312
中共	-313
发现	-314
生物	-315
的研究	-316
旅游	-317
中国大陆	-318
南部	-319
控制	-320
概念	-321
通常	-322
交通	-323
作品	-324
管理	-325
25	-326
la	-327
独立	-328
虽然	-329
他的	-330
游戏	-331
银行	-332
俄罗斯	-333
-{	-334
公路	-335
最大的	-336
}-	-337
学校	-338
组成	-339
北部	-340
操作	-341
部队	-342
都是	-343
70	-344
国内	-345
ic	-346
特别	-347
占领	-348
此外	-349
.6	-350
也有	-351
大部分	-352
22	-353
亚洲	-354
到了	-355
并不	-356
环境	-357
行为	-358
为了	-359
希腊	-360
则是	-361
建设	-362
化学	-363
分析	-364
河南	-365
第三	-366
实验	-367
平原	-368
al	-369
事件	-370
贸易	-371
一直	-372
或者	-373
除了	-374
保护	-375
he	-376
参与	-377
应用	-378
版本	-379
物质	-380
.4	-381
PL	-382
全球	-383
.7	-384
。200	-385
企业	-386
民主	-387
帝国	-388
不同的	-389
定义	-390
性的	-391
甚至	-392
需要	-393
GPL	-394
的主要	-395
.8	-396
平方	-397
数据	-398
很多	-399
国民党	-400
24	-401
27	-402
多德	-403
后来	-404
境内	-405
情况	-406
行政区	-407
任何	-408
中国的	-409
21	-410
亚里	-411
导致	-412
来自	-413
以来	-414
这一	-415
地区的	-416
东南	-417
商业	-418
早期	-419
信仰	-420
最终	-421
相关	-422
实际	-423
流行	-424
政权	-425
医学	-426
建筑	-427
所以	-428
生活	-429
结束	-430
28	-431
ar	-432
两个	-433
利用	-434
大会	-435
DP	-436
各种	-437
孙中山	-438
以上	-439
王朝	-440
亚里士	-441
亚里士多德	-442
.3	-443
26	-444
统计	-445
表示	-446
过程	-447
操作系统	-448
体育	-449
必须	-450
标准	-451
现象	-452
GDP	-453
.9	-454
比较	-455
的是	-456
的发展	-457
社会学	-458
服务	-459
爆发	-460
的大	-461
集团	-462
▁201	-463
大利	-464
心理学	-465
少数民族	-466
内核	-467
同年	-468
西部	-469
逻辑	-470
合作	-471
移民	-472
要求	-473
23	-474
云南	-475
公元	-476
合肥	-477
多的	-478
拉图	-479
基督	-480
拉克	-481
数量	-482
for	-483
198	-484
柏拉图	-485
新疆	-486
植物	-487
的影响	-488
自治区	-489
各地	-490
媒体	-491
河流	-492
实现	-493
知识	-494
物理学	-495
视为	-496
世界上	-497
人民币	-498
49	-499
主张	-500
发达	-501
得到	-502
新的	-503
范围	-504
著名的	-505
不断	-506
产品	-507
佛教	-508
印度	-509
直接	-510
科技	-511
包含	-512
用户	-513
解释	-514
工程	-515
无法	-516
行动	-517
29	-518
mu	-519
造成	-520
第一个	-521
40	-522
处理	-523
宣布	-524
孔子	-525
定的	-526
以后	-527
197	-528
》。	-529
制造	-530
尽管	-531
广西	-532
气候	-533
海南	-534
许可	-535
大多数	-536
水平	-537
美元	-538
.0	-539
es	-540
不是	-541
最后	-542
结果	-543
90	-544
东部	-545
学院	-546
势力	-547
实行	-548
宪法	-549
文明	-550
民间	-551
经过	-552
空间	-553
195	-554
个人	-555
公共	-556
土地	-557
程式	-558
联邦	-559
吉林	-560
河北	-561
社会主义	-562
有关	-563
相当	-564
负责	-565
毛泽	-566
电子	-567
完全	-568
最大	-569
毛泽东	-570
共有	-571
功能	-572
抚顺	-573
是在	-574
现在	-575
编辑	-576
是一个	-577
罗马	-578
完成	-579
程度	-580
著作	-581
平方公里	-582
严重	-583
丰富	-584
广州	-585
文字	-586
自己的	-587
,000	-588
mula	-589
相对	-590
长江	-591
100	-592
安徽	-593
而在	-594
采用	-595
formula	-596
发行	-597
官方	-598
广泛	-599
普通	-600
非常	-601
仍然	-602
关于	-603
汉族	-604
金融	-605
之间的	-606
被称为	-607
:「	-608
el	-609
作用	-610
反对	-611
古代	-612
区域	-613
如果	-614
年间	-615
的国家	-616
发布	-617
2008	-618
GN	-619
众多	-620
北方	-621
2000	-622
2007	-623
主席	-624
执行	-625
继续	-626
山脉	-627
举办	-628
只有	-629
学者	-630
恢复	-631
接受	-632
突破	-633
的经济	-634
37	-635
中原	-636
体系	-637
都有	-638
随着	-639
举行	-640
发动	-641
广播	-642
核心	-643
福建	-644
解决	-645
▁中国	-646
出版	-647
资料	-648
阶段	-649
加入	-650
取得	-651
国的	-652
GNU	-653
二十	-654
原因	-655
学家	-656
学科	-657
当地	-658
我们	-659
普遍	-660
民众	-661
历史上	-662
主教	-663
用于	-664
等等	-665
重新	-666
le	-667
伊斯	-668
是一	-669
省份	-670
西南	-671
han	-672
ri	-673
共同	-674
描述	-675
摩托	-676
特色	-677
至今	-678
贵州	-679
人们	-680
成员	-681
管辖	-682
另一	-683
基地	-684
透过	-685
随后	-686
随著	-687
动物	-688
唯一	-689
收入	-690
有的	-691
海外	-692
清朝	-693
规定	-694
ik	-695
王菲	-696
解放	-697
软体	-698
长期	-699
高原	-700
伊斯兰	-701
在中国	-702
摩托车	-703
高速公路	-704
35	-705
》(	-706
专辑	-707
变化	-708
大约	-709
学习	-710
而且	-711
——	-712
了一	-713
区的	-714
智能	-715
航空	-716
领土	-717
下的	-718
外交	-719
张国	-720
直到	-721
等人	-722
调查	-723
伊拉克	-724
的重要	-725
%;	-726
45	-727
多个	-728
批评	-729
每年	-730
讨论	-731
第二次	-732
2010	-733
单位	-734
名为	-735
文章	-736
集中	-737
之前	-738
冲突	-739
南京	-740
皇帝	-741
ion	-742
联合国	-743
、“	-744
」(	-745
三个	-746
分子	-747
地理	-748
山西	-749
权力	-750
重点	-751
最早的	-752
国民政府	-753
36	-754
太平	-755
殖民	-756
重庆市	-757
:“	-758
修改	-759
同盟	-760
并在	-761
截至	-762
较为	-763
项目	-764
中国国民党	-765
38	-766
re	-767
人员	-768
南北	-769
国歌	-770
宇宙	-771
实施	-772
总量	-773
改变	-774
沿海	-775
等地	-776
精神	-777
经常	-778
这样	-779
选择	-780
首次	-781
天津市	-782
og	-783
不能	-784
军队	-785
力学	-786
十分	-787
参加	-788
发表	-789
持续	-790
盆地	-791
许可证	-792
网路	-793
贝尔	-794
iki	-795
it	-796
华人	-797
博客	-798
国务	-799
年底	-800
往往	-801
指出	-802
条件	-803
目标	-804
起义	-805
风格	-806
代表大会	-807
交流	-808
尤其	-809
整个	-810
条约	-811
的人口	-812
▁S	-813
先后	-814
年至	-815
总值	-816
法兰	-817
纪念	-818
工具	-819
气温	-820
能力	-821
陆续	-822
天主教	-823
的方式	-824
31	-825
st	-826
中医	-827
体的	-828
年来	-829
的主	-830
第一次	-831
.1	-832
46	-833
ow	-834
原子	-835
地球	-836
是由	-837
机器	-838
张国荣	-839
人均	-840
入侵	-841
公园	-842
出的	-843
复杂	-844
曾经	-845
综合	-846
规划	-847
189	-848
山东省	-849
。”	-850
一带	-851
源于	-852
目的	-853
公元前	-854
意大利	-855
2009	-856
中共中央	-857
。」	-858
于是	-859
几乎	-860
多次	-861
多种	-862
法院	-863
物理	-864
使用的	-865
总人口	-866
生产总值	-867
居民	-868
最为	-869
江西	-870
贡献	-871
的历史	-872
。199	-873
人工	-874
代码	-875
其它	-876
内的	-877
它们	-878
西藏	-879
过去	-880
道教	-881
ed	-882
作业	-883
创立	-884
半岛	-885
取代	-886
左右	-887
戏剧	-888
湖北	-889
破坏	-890
第四	-891
运输	-892
这是	-893
选举	-894
国务院	-895
价值	-896
基金	-897
成都	-898
模型	-899
近代	-900
.2	-901
东西	-902
史称	-903
观点	-904
的政治	-905
一步	-906
以下	-907
性质	-908
有些	-909
朝鲜	-910
朱德	-911
知名	-912
”、“	-913
的问题	-914
2012	-915
中国人民	-916
不少	-917
人数	-918
保持	-919
只是	-920
同样	-921
大战	-922
如何	-923
机关	-924
海岸	-925
的新	-926
联盟	-927
自身	-928
高等	-929
临时	-930
今日	-931
出口	-932
发起	-933
安全	-934
居住	-935
省级	-936
系列	-937
网络	-938
辽宁	-939
500	-940
类型	-941
限制	-942
北京市	-943
地理学	-944
中文维基百科	-945
匈奴	-946
基于	-947
学派	-948
特殊	-949
简称	-950
结合	-951
翻译	-952
观察	-953
货币	-954
降水	-955
内部	-956
古典	-957
应该	-958
理解	-959
西亚	-960
输入	-961
om	-962
交易	-963
元素	-964
大型	-965
客运	-966
年前	-967
或是	-968
报告	-969
汽车	-970
经验	-971
居全国	-972
电视台	-973
作业系统	-974
58	-975
一度	-976
一词	-977
中部	-978
后的	-979
因素	-980
学术	-981
时候	-982
某些	-983
资讯	-984
che	-985
主要的	-986
深圳市	-987
et	-988
”(	-989
信息	-990
名称	-991
对象	-992
巴黎	-993
记载	-994
质量	-995
196	-996
哲学家	-997
33	-998
之中	-999
制作	-1000
强调	-1001
担任	-1002
显示	-1003
有限	-1004
模式	-1005
比例	-1006
比重	-1007
直辖	-1008
者的	-1009
设置	-1010
首都	-1011
以外	-1012
价格	-1013
但在	-1014
全市	-1015
出了	-1016
初期	-1017
台北	-1018
埃及	-1019
处于	-1020
太阳	-1021
希望	-1022
战役	-1023
有一	-1024
本身	-1025
运行	-1026
阿拉	-1027
时期的	-1028
进一步	-1029
48	-1030
专业	-1031
之外	-1032
建成	-1033
投资	-1034
死亡	-1035
被视为	-1036
....	-1037
OS	-1038
之乱	-1039
争议	-1040
兴起	-1041
司马	-1042
团体	-1043
新闻	-1044
是否	-1045
有效	-1046
第十	-1047
英语	-1048
大规模	-1049
39	-1050
击败	-1051
分支	-1052
召开	-1053
对外	-1054
来说	-1055
构成	-1056
次于	-1057
江南	-1058
海拔	-1059
西兰	-1060
针对	-1061
马克	-1062
2003	-1063
2015	-1064
书记	-1065
人物	-1066
及其	-1067
发明	-1068
各个	-1069
后期	-1070
夏季	-1071
学的	-1072
差异	-1073
明朝	-1074
演唱	-1075
相同	-1076
足球	-1077
的一个	-1078
创作	-1079
南方	-1080
原住	-1081
扩张	-1082
排名	-1083
推动	-1084
提高	-1085
明显	-1086
洛阳	-1087
群岛	-1088
试图	-1089
迅速	-1090
邓丽	-1091
采取	-1092
,“	-1093
作战	-1094
总理	-1095
承认	-1096
方言	-1097
日军	-1098
此后	-1099
海洋	-1100
热带	-1101
生命	-1102
类似	-1103
遭到	-1104
Win	-1105
被认为	-1106
邓丽君	-1107
ac	-1108
ou	-1109
允许	-1110
原始	-1111
因而	-1112
展开	-1113
意义	-1114
突厥	-1115
第五	-1116
而言	-1117
44	-1118
55	-1119
ol	-1120
分类	-1121
歌曲	-1122
竞争	-1123
说法	-1124
资本	-1125
需求	-1126
龙江	-1127
的情况	-1128
1990	-1129
2011	-1130
of	-1131
三大	-1132
化的	-1133
国王	-1134
年后	-1135
年时	-1136
快速	-1137
苏格	-1138
西北	-1139
证明	-1140
高度	-1141
Wiki	-1142
保留	-1143
劳动	-1144
协助	-1145
对话	-1146
得以	-1147
有所	-1148
歌手	-1149
比如	-1150
省的	-1151
连续	-1152
发展的	-1153
国家的	-1154
2014	-1155
34	-1156
元年	-1157
公民	-1158
创造	-1159
山地	-1160
批准	-1161
政党	-1162
相互	-1163
胜利	-1164
越南	-1165
阶级	-1166
2005	-1167
2016	-1168
加拿	-1169
原则	-1170
改为	-1171
确定	-1172
积极	-1173
而是	-1174
通用	-1175
建立了	-1176
总面积	-1177
浙江省	-1178
产量	-1179
医院	-1180
双方	-1181
和平	-1182
四大	-1183
城区	-1184
宦官	-1185
授权	-1186
欢迎	-1187
汉语	-1188
职业	-1189
记录	-1190
黑龙江	-1191
2006	-1192
▁M	-1193
前往	-1194
号线	-1195
家庭	-1196
是为	-1197
氢气	-1198
维持	-1199
表演	-1200
逐步	-1201
基金会	-1202
2004	-1203
is	-1204
▁(	-1205
▁C	-1206
博物	-1207
投入	-1208
拉底	-1209
有时	-1210
特定	-1211
现今	-1212
用来	-1213
禁止	-1214
角色	-1215
路易	-1216
的城市	-1217
世界大战	-1218
计算机科学	-1219
,6	-1220
两种	-1221
个县	-1222
利益	-1223
加上	-1224
小平	-1225
是指	-1226
稳定	-1227
网站	-1228
上海市	-1229
形成了	-1230
Wind	-1231
chem	-1232
。197	-1233
全部	-1234
十六	-1235
引起	-1236
武器	-1237
继承	-1238
部份	-1239
四川省	-1240
并没有	-1241
是一种	-1242
的理论	-1243
运动会	-1244
2017	-1245
Window	-1246
88	-1247
主题	-1248
人士	-1249
体制	-1250
协会	-1251
当中	-1252
本土	-1253
湖泊	-1254
省会	-1255
约占	-1256
东南亚	-1257
的关系	-1258
邓小平	-1259
」、	-1260
一样	-1261
丘陵	-1262
什么	-1263
位置	-1264
在此	-1265
在这	-1266
扩大	-1267
春秋	-1268
特征	-1269
相比	-1270
编程	-1271
表现	-1272
长安	-1273
高卢	-1274
太平洋	-1275
的概念	-1276
解放军	-1277
人民政府	-1278
反应	-1279
在于	-1280
外国	-1281
常住	-1282
杭州	-1283
演员	-1284
使用者	-1285
1949	-1286
苏格拉底	-1287
中华民国政府	-1288
ia	-1289
▁P	-1290
三年	-1291
不可	-1292
公开	-1293
回族	-1294
是以	-1295
来源	-1296
沈阳	-1297
澳门	-1298
特区	-1299
租界	-1300
符号	-1301
还是	-1302
重大	-1303
▁zh	-1304
也可以	-1305
包括了	-1306
天文学	-1307
的内容	-1308
不久	-1309
成长	-1310
战略	-1311
石器	-1312
石油	-1313
经典	-1314
的基础	-1315
伊斯兰教	-1316
另一方面	-1317
ation	-1318
,《	-1319
事物	-1320
优势	-1321
完整	-1322
市区	-1323
年起	-1324
理性	-1325
的地	-1326
粤语	-1327
编写	-1328
观测	-1329
象征	-1330
量的	-1331
台湾的	-1332
的地区	-1333
▁199	-1334
自由软件	-1335
75	-1336
借由	-1337
全书	-1338
去世	-1339
岛屿	-1340
意识	-1341
战国	-1342
提升	-1343
更加	-1344
王国	-1345
甘肃	-1346
陕西	-1347
黄河	-1348
▁根据	-1349
▁美国	-1350
同时也	-1351
最多的	-1352
殖民地	-1353
av	-1354
以前	-1355
依据	-1356
儒家	-1357
哈尔	-1358
抗日	-1359
撤销	-1360
文件	-1361
明确	-1362
权利	-1363
条款	-1364
海军	-1365
简单	-1366
达成	-1367
实际上	-1368
的地方	-1369
中央委员会	-1370
Windows	-1371
一定	-1372
一次	-1373
下降	-1374
冠军	-1375
最初	-1376
材料	-1377
相继	-1378
省内	-1379
联系	-1380
英文	-1381
古希腊	-1382
1980	-1383
64	-1384
事务	-1385
事实	-1386
内战	-1387
几个	-1388
制的	-1389
十二	-1390
多数	-1391
客家	-1392
常见	-1393
拉斯	-1394
智慧	-1395
最佳	-1396
最多	-1397
标志	-1398
正在	-1399
治疗	-1400
电台	-1401
矿产	-1402
级市	-1403
西洋	-1404
辖区	-1405
遗产	-1406
里程	-1407
错误	-1408
韩国	-1409
190	-1410
ing	-1411
」、「	-1412
博物馆	-1413
年开始	-1414
法国的	-1415
纽西兰	-1416
改革开放	-1417
2,	-1418
两岸	-1419
了解	-1420
互动	-1421
代数	-1422
传播	-1423
全面	-1424
减少	-1425
各国	-1426
周边	-1427
唐代	-1428
引发	-1429
推行	-1430
时的	-1431
普查	-1432
灭亡	-1433
社群	-1434
签署	-1435
速度	-1436
遗址	-1437
法兰西	-1438
马克思	-1439
,「	-1440
43	-1441
农民	-1442
出生	-1443
加坡	-1444
医疗	-1445
唱片	-1446
失败	-1447
并于	-1448
枢纽	-1449
武帝	-1450
道德	-1451
人口为	-1452
出现了	-1453
加拿大	-1454
文化的	-1455
2013	-1456
65	-1457
89	-1458
ch	-1459
op	-1460
人在	-1461
天下	-1462
季风	-1463
特点	-1464
独特	-1465
纪录	-1466
设有	-1467
进攻	-1468
那些	-1469
特别是	-1470
近年来	-1471
百科全书	-1472
▁B	-1473
今天	-1474
区和	-1475
十年	-1476
名的	-1477
壮族	-1478
太子	-1479
家族	-1480
每个	-1481
法学	-1482
涉及	-1483
港口	-1484
维护	-1485
起来	-1486
进步	-1487
销量	-1488
吉林省	-1489
新加坡	-1490
直辖市	-1491
是世界上	-1492
47	-1493
北洋	-1494
同意	-1495
好的	-1496
心理	-1497
恒星	-1498
整体	-1499
海峡	-1500
状态	-1501
生态	-1502
美军	-1503
诸侯	-1504
部落	-1505
重视	-1506
金属	-1507
ent	-1508
基督教	-1509
的中国	-1510
);	-1511
52	-1512
il	-1513
中学	-1514
关注	-1515
加强	-1516
帮助	-1517
来越	-1518
部门	-1519
附近	-1520
年突破	-1521
hans	-1522
共产主义	-1523
国际机场	-1524
也在	-1525
作家	-1526
四年	-1527
图书	-1528
大致	-1529
如此	-1530
官员	-1531
投降	-1532
掌握	-1533
族群	-1534
班牙	-1535
约有	-1536
认识	-1537
▁of	-1538
仅次于	-1539
他们的	-1540
西班牙	-1541
诺贝尔	-1542
32	-1543
东方	-1544
东汉	-1545
两国	-1546
他在	-1547
天然	-1548
奥运	-1549
并非	-1550
机会	-1551
波兰	-1552
现实	-1553
立法	-1554
粮食	-1555
较大	-1556
通车	-1557
与其他	-1558
主要是	-1559
分之一	-1560
大革命	-1561
的社会	-1562
越来越	-1563
os	-1564
个体	-1565
传入	-1566
其后	-1567
冬季	-1568
小说	-1569
建国	-1570
征服	-1571
很大	-1572
成本	-1573
架构	-1574
美术	-1575
财政	-1576
青天	-1577
▁台湾	-1578
也就是	-1579
国家级	-1580
影响力	-1581
阿拉伯	-1582
人工智能	-1583
石器时代	-1584
56	-1585
ci	-1586
pt	-1587
▁H	-1588
三角	-1589
也会	-1590
分裂	-1591
分配	-1592
利亚	-1593
合并	-1594
君主	-1595
官话	-1596
局面	-1597
带来	-1598
年在	-1599
建议	-1600
所谓	-1601
推出	-1602
数的	-1603
最低	-1604
有人	-1605
本地	-1606
杂志	-1607
毕业	-1608
污染	-1609
演出	-1610
白日	-1611
真正	-1612
纷纷	-1613
量子	-1614
尤其是	-1615
年平均	-1616
广东省	-1617
的方法	-1618
86	-1619
▁T	-1620
万名	-1621
中期	-1622
作者	-1623
即位	-1624
国共	-1625
威胁	-1626
小学	-1627
提到	-1628
新教	-1629
然后	-1630
空气	-1631
边境	-1632
面临	-1633
高的	-1634
年增长	-1635
美国的	-1636
83	-1637
Sc	-1638
tw	-1639
us	-1640
不满	-1641
世凯	-1642
从此	-1643
危机	-1644
原本	-1645
平衡	-1646
年末	-1647
教会	-1648
数字	-1649
斯坦	-1650
斯特	-1651
更多	-1652
武装	-1653
游客	-1654
编译	-1655
联军	-1656
评论	-1657
%)、	-1658
ter	-1659
▁由于	-1660
▁目前	-1661
以上的	-1662
提出的	-1663
的一种	-1664
的科学	-1665
袁世凯	-1666
青天白日	-1667
第二次世界大战	-1668
1,	-1669
▁A	-1670
》《	-1671
不会	-1672
主权	-1673
停止	-1674
制定	-1675
占据	-1676
司令	-1677
多样	-1678
森林	-1679
美洲	-1680
议会	-1681
;}-	-1682
。18	-1683
人口的	-1684
全世界	-1685
在上海	-1686
而不是	-1687
2001	-1688
的一部分	-1689
od	-1690
ra	-1691
一起	-1692
万吨	-1693
不再	-1694
两者	-1695
之下	-1696
亦有	-1697
力量	-1698
只能	-1699
国会	-1700
将其	-1701
按照	-1702
汇率	-1703
汉字	-1704
汉朝	-1705
用的	-1706
离子	-1707
第六	-1708
而成	-1709
自行	-1710
融合	-1711
规范	-1712
青海	-1713
亿美元	-1714
增加值	-1715
降水量	-1716
42	-1717
57	-1718
主导	-1719
互相	-1720
公布	-1721
农村	-1722
十大	-1723
协议	-1724
变成	-1725
密度	-1726
山区	-1727
成果	-1728
推广	-1729
数域	-1730
浏览	-1731
粒子	-1732
繁荣	-1733
衍生	-1734
诞生	-1735
主义的	-1736
分布在	-1737
河流域	-1738
经济发展	-1739
维基百科的	-1740
59	-1741
▁从	-1742
严格	-1743
也被	-1744
事业	-1745
人和	-1746
从而	-1747
仪式	-1748
又称	-1749
女性	-1750
新区	-1751
星系	-1752
未来	-1753
流域	-1754
消灭	-1755
贵族	-1756
运作	-1757
都会	-1758
长春	-1759
长的	-1760
隋朝	-1761
在北京	-1762
当时的	-1763
政府的	-1764
运动的	-1765
成为中国	-1766
被认为是	-1767
中华民国国旗	-1768
41	-1769
不仅	-1770
创建	-1771
并入	-1772
接近	-1773
措施	-1774
攻击	-1775
攻占	-1776
符合	-1777
经历	-1778
腐败	-1779
蓝鹊	-1780
行星	-1781
非洲	-1782
,19	-1783
300	-1784
占全国	-1785
和其他	-1786
辽宁省	-1787
人口普查	-1788
66	-1789
一年	-1790
东亚	-1791
中亚	-1792
中有	-1793
作物	-1794
保险	-1795
党员	-1796
动员	-1797
史上	-1798
各类	-1799
已有	-1800
当选	-1801
总体	-1802
扩展	-1803
支援	-1804
斗争	-1805
朝廷	-1806
正确	-1807
比赛	-1808
理想	-1809
的发	-1810
规则	-1811
设施	-1812
集合	-1813
青年	-1814
饮食	-1815
中世纪	-1816
在美国	-1817
研究的	-1818
科学家	-1819
系统的	-1820
ript	-1821
常住人口	-1822
Un	-1823
上升	-1824
全体	-1825
兴趣	-1826
再次	-1827
分成	-1828
列表	-1829
创办	-1830
卫生	-1831
国语	-1832
容易	-1833
德军	-1834
所在	-1835
指挥	-1836
改善	-1837
本质	-1838
生育	-1839
的有	-1840
的高	-1841
红旗	-1842
继位	-1843
能源	-1844
认同	-1845
为中国	-1846
图书馆	-1847
在台湾	-1848
提出了	-1849
最重要的	-1850
Script	-1851
主流	-1852
之战	-1853
二年	-1854
元朝	-1855
北伐	-1856
复兴	-1857
就有	-1858
源自	-1859
确立	-1860
线路	-1861
细胞	-1862
缺乏	-1863
荷兰	-1864
设备	-1865
调整	-1866
进而	-1867
首位	-1868
实验室	-1869
成为了	-1870
生物学	-1871
组织的	-1872
76	-1873
不得	-1874
专家	-1875
专门	-1876
两大	-1877
低于	-1878
则有	-1879
北宋	-1880
合物	-1881
商品	-1882
在其	-1883
宝安	-1884
废除	-1885
斯林	-1886
显著	-1887
死后	-1888
毫米	-1889
江苏	-1890
满族	-1891
种类	-1892
称呼	-1893
覆盖	-1894
说明	-1895
运河	-1896
运营	-1897
连接	-1898
避免	-1899
都市	-1900
间的	-1901
集体	-1902
青岛	-1903
同盟国	-1904
抚顺市	-1905
穆斯林	-1906
自治县	-1907
1997	-1908
的情况下	-1909
行政区划	-1910
79	-1911
In	-1912
as	-1913
。《	-1914
以南	-1915
任务	-1916
决议	-1917
准备	-1918
出来	-1919
华北	-1920
名字	-1921
吸引	-1922
地形	-1923
地质	-1924
场所	-1925
天文	-1926
宁夏	-1927
宣告	-1928
常常	-1929
总督	-1930
放弃	-1931
根本	-1932
档案	-1933
此时	-1934
玄宗	-1935
率为	-1936
约翰	-1937
群众	-1938
至少	-1939
西域	-1940
认知	-1941
访问	-1942
▁法国	-1943
的形式	-1944
的文化	-1945
。2015	-1946
万平方公里	-1947
</	-1948
为首	-1949
人大	-1950
仓颉	-1951
依然	-1952
划归	-1953
地处	-1954
地铁	-1955
太宗	-1956
实力	-1957
尝试	-1958
平等	-1959
意见	-1960
成就	-1961
托瓦	-1962
报纸	-1963
故事	-1964
斯托	-1965
日报	-1966
普及	-1967
林匹	-1968
盟军	-1969
直至	-1970
给予	-1971
轴心	-1972
长度	-1973
陆地	-1974
院校	-1975
主要有	-1976
分别为	-1977
大量的	-1978
托瓦兹	-1979
演唱会	-1980
的代表	-1981
全国代表大会	-1982
85	-1983
ix	-1984
▁N	-1985
▁自	-1986
东京	-1987
为一	-1988
为止	-1989
之子	-1990
全年	-1991
再度	-1992
单一	-1993
南海	-1994
四个	-1995
密切	-1996
将军	-1997
小时	-1998
广义	-1999
律宾	-2000
拒绝	-2001
教授	-2002
无论	-2003
比上	-2004
清廷	-2005
现有	-2006
经营	-2007
考虑	-2008
辐射	-2009
道路	-2010
面对	-2011
ava	-2012
他认为	-2013
受欢迎	-2014
在内的	-2015
对话录	-2016
政治局	-2017
的传统	-2018
菲律宾	-2019
81	-2020
▁t	-2021
。9	-2022
从事	-2023
促使	-2024
假设	-2025
免费	-2026
军阀	-2027
同一	-2028
和大	-2029
国防	-2030
在大	-2031
坚持	-2032
实践	-2033
宣传	-2034
州的	-2035
方向	-2036
早在	-2037
机械	-2038
某种	-2039
武汉	-2040
淡水	-2041
理事	-2042
的前	-2043
离散	-2044
组合	-2045
绝对	-2046
藩镇	-2047
观念	-2048
辽东	-2049
预测	-2050
高校	-2051
and	-2052
在全国	-2053
奥林匹	-2054
政治学	-2055
的思想	-2056
运动员	-2057
革命军	-2058
领导人	-2059
Java	-2060
中华人民共和国成立	-2061
87	-2062
ig	-2063
不足	-2064
习惯	-2065
书院	-2066
争论	-2067
位居	-2068
例子	-2069
促进	-2070
保障	-2071
修建	-2072
入选	-2073
参考	-2074
口岸	-2075
可汗	-2076
各自	-2077
合法	-2078
名义	-2079
命令	-2080
场合	-2081
城镇	-2082
大批	-2083
形态	-2084
态度	-2085
指导	-2086
改造	-2087
攻势	-2088
整数	-2089
晚期	-2090
月时	-2091
法语	-2092
济南	-2093
清代	-2094
渤海	-2095
由此	-2096
纳入	-2097
脱离	-2098
议院	-2099
记忆	-2100
里的	-2101
颁布	-2102
马来	-2103
高于	-2104
鼓励	-2105
或者是	-2106
方面的	-2107
有许多	-2108
蒙古族	-2109
输入法	-2110
过程中	-2111
hant	-2112
绝大多数	-2113
▁1949	-2114
。1949	-2115
与此	-2116
人文	-2117
估计	-2118
供给	-2119
信徒	-2120
典型	-2121
协商	-2122
南宋	-2123
取消	-2124
国军	-2125
国有	-2126
国立	-2127
图形	-2128
地势	-2129
地域	-2130
培养	-2131
契丹	-2132
工人	-2133
延伸	-2134
很快	-2135
意味	-2136
拉丁	-2137
注意	-2138
滨海	-2139
疾病	-2140
病毒	-2141
算法	-2142
至此	-2143
被迫	-2144
试验	-2145
超级	-2146
转变	-2147
长官	-2148
面的	-2149
鲜卑	-2150
最高的	-2151
源代码	-2152
的结果	-2153
组成的	-2154
。190	-2155
奥林匹克	-2156
......	-2157
54	-2158
82	-2159
84	-2160
▁G	-2161
专注	-2162
之为	-2163
五年	-2164
介绍	-2165
合成	-2166
吐蕃	-2167
地带	-2168
失去	-2169
完善	-2170
宣称	-2171
延续	-2172
当代	-2173
抵达	-2174
消费	-2175
直隶	-2176
节度	-2177
运用	-2178
黑客	-2179
为基础	-2180
传统的	-2181
另一个	-2182
可能是	-2183
的军事	-2184
的时候	-2185
语言的	-2186
轴心国	-2187
内蒙古自治区	-2188
53	-2189
62	-2190
中书	-2191
中等	-2192
列为	-2193
千米	-2194
即使	-2195
学堂	-2196
州市	-2197
平定	-2198
年度	-2199
康熙	-2200
开通	-2201
技巧	-2202
拍摄	-2203
族的	-2204
明代	-2205
更为	-2206
机制	-2207
责任	-2208
那么	-2209
可分为	-2210
宗教的	-2211
总书记	-2212
河北省	-2213
版本的	-2214
占总人口	-2215
抗日战争	-2216
()	-2217
51	-2218
67	-2219
69	-2220
77	-2221
ct	-2222
im	-2223
▁。	-2224
。“	-2225
三十	-2226
京剧	-2227
儿子	-2228
先进	-2229
区别	-2230
华语	-2231
占有	-2232
卡尔	-2233
反映	-2234
吾尔	-2235
多元	-2236
多年	-2237
大众	-2238
学说	-2239
对立	-2240
小组	-2241
师范	-2242
并以	-2243
引擎	-2244
意思	-2245
文物	-2246
日益	-2247
杜鹃	-2248
父亲	-2249
的三	-2250
离开	-2251
签订	-2252
自动	-2253
航道	-2254
葡萄	-2255
装置	-2256
走向	-2257
闽南	-2258
降低	-2259
频道	-2260
首先	-2261
高铁	-2262
为代表	-2263
原住民	-2264
基督徒	-2265
建立的	-2266
所有的	-2267
现代化	-2268
的电影	-2269
维吾尔	-2270
中央政府	-2271
其中包括	-2272
原住民族	-2273
广播电台	-2274
高等教育	-2275
eb	-2276
ot	-2277
▁W	-2278
主持	-2279
任命	-2280
使司	-2281
先生	-2282
全境	-2283
十九	-2284
各省	-2285
同期	-2286
后者	-2287
周恩	-2288
外来	-2289
大幅	-2290
大臣	-2291
委会	-2292
悠久	-2293
截止	-2294
方案	-2295
有著	-2296
未能	-2297
演化	-2298
澎湖	-2299
示威	-2300
表达	-2301
规律	-2302
训练	-2303
议题	-2304
风景	-2305
高中	-2306
400	-2307
▁18	-2308
一部分	-2309
在香港	-2310
奥运会	-2311
普通话	-2312
法兰克	-2313
的地位	-2314
节度使	-2315
这样的	-2316
1000	-2317
1945	-2318
1950	-2319
1978	-2320
文化大革命	-2321
▁Linux	-2322
▁阿尔巴尼亚	-2323
3,	-2324
99	-2325
em	-2326
▁R	-2327
三国	-2328
二世	-2329
健康	-2330
元代	-2331
公众	-2332
其余	-2333
列宁	-2334
勇军	-2335
国号	-2336
地图	-2337
大力	-2338
大桥	-2339
天体	-2340
失业	-2341
广场	-2342
应当	-2343
德纳	-2344
损失	-2345
撰写	-2346
氧化	-2347
水库	-2348
水系	-2349
活跃	-2350
海上	-2351
满洲	-2352
的最	-2353
盛行	-2354
种植	-2355
称作	-2356
纽约	-2357
语音	-2358
课程	-2359
质子	-2360
起源	-2361
都督	-2362
酒店	-2363
陷入	-2364
▁重庆	-2365
上海的	-2366
之后的	-2367
也开始	-2368
发展出	-2369
是因为	-2370
的作品	-2371
进行了	-2372
领域的	-2373
GPLv	-2374
流行音乐	-2375
高速铁路	-2376
。2010	-2377
人民代表大会	-2378
hk	-2379
id	-2380
ut	-2381
。7	-2382
一切	-2383
万物	-2384
下游	-2385
亦是	-2386
俄国	-2387
倾向	-2388
内地	-2389
办公	-2390
北平	-2391
南下	-2392
卫星	-2393
友好	-2394
可见	-2395
夺得	-2396
它的	-2397
定居	-2398
才能	-2399
打击	-2400
执政	-2401
推理	-2402
景观	-2403
有着	-2404
比亚	-2405
波斯	-2406
派遣	-2407
温带	-2408
游行	-2409
红军	-2410
考古	-2411
行省	-2412
陆军	-2413
(),	-2414
。17	-2415
世纪末	-2416
个国家	-2417
义勇军	-2418
产生了	-2419
分别是	-2420
周恩来	-2421
提供了	-2422
文化和	-2423
斯托曼	-2424
是全国	-2425
海岸线	-2426
的省份	-2427
的第一	-2428
相关的	-2429
行政院	-2430
集中在	-2431
1995	-2432
1999	-2433
2002	-2434
中国政府	-2435
历史文化	-2436
季风气候	-2437
心理学家	-2438
民族主义	-2439
61	-2440
68	-2441
ph	-2442
。8	-2443
中正	-2444
义务	-2445
人才	-2446
人权	-2447
依赖	-2448
信奉	-2449
其子	-2450
具体	-2451
割据	-2452
区分	-2453
古老	-2454
司法	-2455
多为	-2456
安史	-2457
审判	-2458
宣言	-2459
对此	-2460
崛起	-2461
年轻	-2462
彼此	-2463
总部	-2464
成熟	-2465
推翻	-2466
文艺	-2467
斯科	-2468
有了	-2469
温度	-2470
版权	-2471
称帝	-2472
背景	-2473
舞台	-2474
轨道	-2475
转换	-2476
这次	-2477
野生	-2478
在日本	-2479
成都王	-2480
的基本	-2481
进行曲	-2482
高德纳	-2483
资本主义	-2484
产业增加值	-2485
ag	-2486
ur	-2487
也不	-2488
五大	-2489
五星	-2490
产值	-2491
亨利	-2492
作出	-2493
储量	-2494
儿童	-2495
公顷	-2496
决策	-2497
出租	-2498
分发	-2499
地下	-2500
外汇	-2501
大大	-2502
太原	-2503
娱乐	-2504
定为	-2505
平民	-2506
年到	-2507
年均	-2508
并将	-2509
引入	-2510
扮演	-2511
抗战	-2512
抗议	-2513
效果	-2514
极为	-2515
桥梁	-2516
混合	-2517
清末	-2518
演奏	-2519
疆域	-2520
相似	-2521
相信	-2522
真实	-2523
联赛	-2524
西汉	-2525
角度	-2526
证实	-2527
路线	-2528
通讯	-2529
青铜	-2530
食品	-2531
世纪初	-2532
化合物	-2533
唯一的	-2534
的中心	-2535
结束后	-2536
这使得	-2537
进行的	-2538
1991	-2539
黑龙江省	-2540
比上年增长	-2541
72	-2542
97	-2543
cn	-2544
▁D	-2545
一致	-2546
下来	-2547
乐坛	-2548
事变	-2549
享有	-2550
以北	-2551
伦敦	-2552
伯特	-2553
力的	-2554
医生	-2555
十一	-2556
发出	-2557
变得	-2558
叛乱	-2559
国力	-2560
地貌	-2561
大气	-2562
安门	-2563
定律	-2564
并未	-2565
性和	-2566
手段	-2567
批判	-2568
效率	-2569
日常	-2570
板块	-2571
汉人	-2572
注重	-2573
注音	-2574
相反	-2575
科举	-2576
萨克	-2577
证券	-2578
谈判	-2579
赛事	-2580
边界	-2581
迁至	-2582
返回	-2583
追溯	-2584
高雄	-2585
鸦片	-2586
也因此	-2587
地级市	-2588
安徽省	-2589
指的是	-2590
物质的	-2591
的语言	-2592
的说法	-2593
第一位	-2594
经济的	-2595
台湾蓝鹊	-2596
马来西亚	-2597
在中国大陆	-2598
义勇军进行曲	-2599
中国共产党中央委员会	-2600
ce	-2601
un	-2602
、3	-2603
一级	-2604
万元	-2605
上帝	-2606
不变	-2607
乾隆	-2608
互联	-2609
关键	-2610
兴建	-2611
创新	-2612
华夏	-2613
协调	-2614
呈现	-2615
大国	-2616
天气	-2617
奠定	-2618
如下	-2619
家的	-2620
对应	-2621
巨大	-2622
年和	-2623
形而	-2624
循环	-2625
总数	-2626
战后	-2627
教学	-2628
教科	-2629
新兴	-2630
旗帜	-2631
更是	-2632
松龄	-2633
测量	-2634
种族	-2635
绍兴	-2636
考试	-2637
聚居	-2638
能量	-2639
舞蹈	-2640
航线	-2641
资产	-2642
身份	-2643
。11	-2644
了中国	-2645
可能会	-2646
唐玄宗	-2647
在天津	-2648
的局面	-2649
维基人	-2650
都可以	-2651
问题的	-2652
东北地区	-2653
安史之乱	-2654
经济学家	-2655
国民革命军	-2656
JavaScript	-2657
IX	-2658
▁F	-2659
、、	-2660
东海	-2661
之地	-2662
习近	-2663
二人	-2664
俱乐	-2665
儒教	-2666
党的	-2667
准确	-2668
出兵	-2669
前的	-2670
反抗	-2671
发电	-2672
喜欢	-2673
困难	-2674
实质	-2675
审查	-2676
寻求	-2677
崇拜	-2678
战斗	-2679
探索	-2680
接触	-2681
方针	-2682
本省	-2683
格局	-2684
沿岸	-2685
注册	-2686
满地	-2687
理念	-2688
百年	-2689
祖先	-2690
第七	-2691
苹果	-2692
行业	-2693
距离	-2694
较低	-2695
迁都	-2696
连结	-2697
长沙	-2698
频繁	-2699
高级	-2700
黄金	-2701
elf	-2702
一系列	-2703
中医学	-2704
习近平	-2705
互联网	-2706
产生的	-2707
合肥市	-2708
天安门	-2709
成立的	-2710
特定的	-2711
的设计	-2712
自治州	-2713
蒲松龄	-2714
1993	-2715
与此同时	-2716
平均气温	-2717
广西壮族	-2718
经济特区	-2719
的操作系统	-2720
青天白日满地	-2721
中国人民解放军	-2722
广西壮族自治区	-2723
BM	-2724
am	-2725
▁L	-2726
下令	-2727
做出	-2728
凭借	-2729
列入	-2730
到的	-2731
命名	-2732
在位	-2733
外的	-2734
平台	-2735
年被	-2736
开源	-2737
抵抗	-2738
抽象	-2739
指数	-2740
明清	-2741
最近	-2742
欧盟	-2743
淮河	-2744
版图	-2745
物种	-2746
监督	-2747
相应	-2748
秩序	-2749
而被	-2750
聚集	-2751
西晋	-2752
讨伐	-2753
诸如	-2754
贞观	-2755
迁往	-2756
针灸	-2757
领袖	-2758
飞机	-2759
为中心	-2760
俱乐部	-2761
则认为	-2762
存在的	-2763
的使用	-2764
的哲学	-2765
福建省	-2766
称之为	-2767
蒋中正	-2768
较大的	-2769
2018	-2770
edia	-2771
政治协商	-2772
资源丰富	-2773
量子力学	-2774
▁中华民国	-2775
中央政治局	-2776
中国共产党的	-2777
%(	-2778
ie	-2779
iv	-2780
上都	-2781
习俗	-2782
书中	-2783
修正	-2784
划分	-2785
努力	-2786
南昌	-2787
原先	-2788
原理	-2789
后世	-2790
回到	-2791
国道	-2792
在今	-2793
如同	-2794
字母	-2795
宋代	-2796
定都	-2797
引进	-2798
微软	-2799
播放	-2800
极大	-2801
歌唱	-2802
流传	-2803
犯罪	-2804
电力	-2805
矛盾	-2806
神话	-2807
袭击	-2808
誉为	-2809
证据	-2810
资金	-2811
转移	-2812
长达	-2813
首领	-2814
(18	-2815
IBM	-2816
▁截至	-2817
一方面	-2818
专注于	-2819
为首的	-2820
代表作	-2821
后来的	-2822
和发展	-2823
哈尔滨	-2824
唐太宗	-2825
市辖区	-2826
形而上	-2827
清政府	-2828
独立的	-2829
生产的	-2830
1970	-2831
Unix	-2832
北洋政府	-2833
编程语言	-2834
73	-2835
▁O	-2836
▁《	-2837
。6	-2838
上游	-2839
五个	-2840
仅有	-2841
以西	-2842
传教	-2843
元帅	-2844
兴安	-2845
其实	-2846
医药	-2847
压力	-2848
另有	-2849
周围	-2850
呼伦	-2851
品牌	-2852
商人	-2853
地震	-2854
多项	-2855
学和	-2856
对抗	-2857
市的	-2858
开封	-2859
当年	-2860
恐怖	-2861
战场	-2862
户籍	-2863
援助	-2864
昆明	-2865
末年	-2866
某一	-2867
淮南	-2868
港澳	-2869
满足	-2870
率军	-2871
率领	-2872
百分	-2873
社区	-2874
神论	-2875
立场	-2876
网页	-2877
而不	-2878
而非	-2879
购买	-2880
起兵	-2881
这也	-2882
那克	-2883
镇压	-2884
150	-2885
。10	-2886
。12	-2887
世界的	-2888
中书省	-2889
主城区	-2890
事实上	-2891
亚热带	-2892
其他的	-2893
制造业	-2894
北部的	-2895
同盟会	-2896
并且在	-2897
开发区	-2898
形成的	-2899
政使司	-2900
来自于	-2901
海南岛	-2902
的自然	-2903
美国人	-2904
艺术家	-2905
阿那克	-2906
.5%,	-2907
国共内战	-2908
历史文化名	-2909
大部分地区	-2910
奥林匹克运动会	-2911
中华人民共和国政府	-2912
,0	-2913
71	-2914
▁E	-2915
中东	-2916
之称	-2917
于此	-2918
五代	-2919
会有	-2920
位列	-2921
便是	-2922
公交	-2923
分离	-2924
创始	-2925
刺史	-2926
剧院	-2927
各级	-2928
后裔	-2929
向量	-2930
吸收	-2931
国土	-2932
土壤	-2933
均衡	-2934
基因	-2935
士兵	-2936
声音	-2937
孙文	-2938
宁波	-2939
定位	-2940
展示	-2941
岁的	-2942
开创	-2943
当局	-2944
投票	-2945
挪威	-2946
改称	-2947
文本	-2948
旅客	-2949
极端	-2950
次年	-2951
母亲	-2952
汗国	-2953
湖南	-2954
物体	-2955
秦朝	-2956
篮球	-2957
纳斯	-2958
维埃	-2959
行程	-2960
赵王	-2961
输出	-2962
逝世	-2963
销售	-2964
长城	-2965
▁上海	-2966
▁深圳	-2967
世纪的	-2968
义大利	-2969
出来的	-2970
包含了	-2971
南北朝	-2972
大城市	-2973
情况下	-2974
的程序	-2975
的行为	-2976
起源于	-2977
-{}-	-2978
1960	-2979
▁190	-2980
世界各地	-2981
基督新教	-2982
宗教信仰	-2983
授权条款	-2984
文化遗产	-2985
国内生产总值	-2986
是中华人民共和国	-2987
(6	-2988
SA	-2989
br	-2990
▁d	-2991
▁s	-2992
书籍	-2993
仍有	-2994
伺服	-2995
使馆	-2996
供应	-2997
依照	-2998
初步	-2999
利特	-3000
加以	-3001
十八	-3002
又有	-3003
含有	-3004
国父	-3005
在内	-3006
大小	-3007
大都	-3008
始终	-3009
尔多	-3010
尔特	-3011
局势	-3012
工厂	-3013
年中	-3014
开展	-3015
强烈	-3016
彻底	-3017
找到	-3018
收录	-3019
数论	-3020
时常	-3021
武力	-3022
沿用	-3023
海口	-3024
深入	-3025
激烈	-3026
状况	-3027
王位	-3028
理工	-3029
理查	-3030
的话	-3031
知道	-3032
硬体	-3033
确保	-3034
秦国	-3035
米亚	-3036
红色	-3037
致力	-3038
节目	-3039
英雄	-3040
表明	-3041
装备	-3042
详细	-3043
辛亥	-3044
近年	-3045
除此	-3046
齐王	-3047
▁浙江	-3048
▁虽然	-3049
伺服器	-3050
出现的	-3051
出租车	-3052
动员令	-3053
南部的	-3054
大约有	-3055
总司令	-3056
有一个	-3057
河南省	-3058
海南省	-3059
的定义	-3060
的著作	-3061
相当于	-3062
社会的	-3063
经济体	-3064
全体会议	-3065
务委员会	-3066
社会学家	-3067
。2009	-3068
马克思主义	-3069
政治协商会议	-3070
Te	-3071
_1	-3072
pe	-3073
um	-3074
▁“	-3075
《》	-3076
专利	-3077
临床	-3078
主体	-3079
乐器	-3080
九年	-3081
争夺	-3082
会在	-3083
传说	-3084
依靠	-3085
兄弟	-3086
内陆	-3087
劳工	-3088
名胜	-3089
回归	-3090
在校	-3091
夏威	-3092
如今	-3093
客观	-3094
年初	-3095
式的	-3096
引用	-3097
形象	-3098
思维	-3099
成了	-3100
接著	-3101
改组	-3102
是对	-3103
是有	-3104
查理	-3105
棒球	-3106
泰勒	-3107
泽民	-3108
演绎	-3109
的外	-3110
看法	-3111
纳粹	-3112
终于	-3113
腓力	-3114
衰落	-3115
货运	-3116
进化	-3117
防止	-3118
600	-3119
700	-3120
per	-3121
中国在	-3122
但是在	-3123
其中以	-3124
可以在	-3125
夏威夷	-3126
大西洋	-3127
导致了	-3128
强大的	-3129
意味著	-3130
的政策	-3131
的数学	-3132
第一部	-3133
第五次	-3134
简单的	-3135
苏维埃	-3136
赫拉克	-3137
革命党	-3138
▁the	-3139
台湾地区	-3140
海外华人	-3141
社会科学	-3142
罗马帝国	-3143
自由贸易	-3144
自由软体	-3145
省级行政区	-3146
少数民族人口	-3147
(1	-3148
,5	-3149
BS	-3150
ad	-3151
ob	-3152
▁,	-3153
下辖	-3154
为此	-3155
之上	-3156
乌桓	-3157
以东	-3158
以为	-3159
任期	-3160
保定	-3161
保证	-3162
借此	-3163
假说	-3164
儒学	-3165
共识	-3166
关中	-3167
兴盛	-3168
几何	-3169
前列	-3170
办事	-3171
十字	-3172
千年	-3173
博士	-3174
即是	-3175
反而	-3176
呼吸	-3177
四人	-3178
图案	-3179
地的	-3180
声称	-3181
学问	-3182
安排	-3183
宋朝	-3184
尔干	-3185
并与	-3186
广大	-3187
强制	-3188
思考	-3189
想法	-3190
意志	-3191
挑战	-3192
排行	-3193
接壤	-3194
推进	-3195
提议	-3196
最有	-3197
模拟	-3198
欧亚	-3199
正常	-3200
河间	-3201
男性	-3202
的反	-3203
立方	-3204
章程	-3205
等级	-3206
绥远	-3207
自我	-3208
节日	-3209
范畴	-3210
诸多	-3211
财富	-3212
赢得	-3213
趋势	-3214
较少	-3215
较高	-3216
连串	-3217
闻名	-3218
首个	-3219
黄帝	-3220
(12	-3221
(16	-3222
(17	-3223
The	-3224
ard	-3225
ian	-3226
万人次	-3227
不过在	-3228
为世界	-3229
云南省	-3230
保护区	-3231
和中国	-3232
增长率	-3233
大利亚	-3234
天然气	-3235
届全国	-3236
带来的	-3237
常委会	-3238
常见的	-3239
很大的	-3240
教育部	-3241
早期的	-3242
是世界	-3243
江泽民	-3244
的最高	-3245
的条目	-3246
的活动	-3247
的领域	-3248
相对论	-3249
1994	-3250
Self	-3251
olog	-3252
总面积的	-3253
澳大利亚	-3254
级行政区	-3255
辛亥革命	-3256
阿那克西	-3257
赫拉克利特	-3258
(,	-3259
FS	-3260
II	-3261
专线	-3262
东晋	-3263
中间	-3264
乃至	-3265
优秀	-3266
余人	-3267
保存	-3268
光绪	-3269
公主	-3270
凯恩	-3271
则在	-3272
初年	-3273
判断	-3274
动态	-3275
北美	-3276
协定	-3277
卡佩	-3278
吐量	-3279
喜爱	-3280
城际	-3281
夏朝	-3282
孙在	-3283
实证	-3284
将领	-3285
小的	-3286
尔斯	-3287
建造	-3288
开元	-3289
性别	-3290
报导	-3291
授予	-3292
文帝	-3293
文献	-3294
日至	-3295
更改	-3296
月底	-3297
月至	-3298
期望	-3299
权的	-3300
狭义	-3301
秦始	-3302
空军	-3303
策略	-3304
缅甸	-3305
航天	-3306
西周	-3307
西安	-3308
言论	-3309
评价	-3310
诗人	-3311
过渡	-3312
这类	-3313
适合	-3314
适应	-3315
都在	-3316
难以	-3317
领先	-3318
高宗	-3319
高达	-3320
2.6	-3321
omp	-3322
个民族	-3323
凯恩斯	-3324
副主席	-3325
参议院	-3326
发现了	-3327
发行版	-3328
可以被	-3329
吞吐量	-3330
定义为	-3331
新技术	-3332
时代的	-3333
是研究	-3334
特色的	-3335
独特的	-3336
的功能	-3337
的统治	-3338
第二大	-3339
莫斯科	-3340
语言学	-3341
贵州省	-3342
领导的	-3343
5000	-3344
客运专线	-3345
鸦片战争	-3346
。2014	-3347
%、	-3348
63	-3349
ov	-3350
▁而	-3351
一世	-3352
三世	-3353
三省	-3354
与其	-3355
中被	-3356
为其	-3357
之治	-3358
亿人	-3359
伦理	-3360
体现	-3361
典礼	-3362
初中	-3363
区县	-3364
单于	-3365
大连	-3366
始于	-3367
学会	-3368
定理	-3369
干线	-3370
开埠	-3371
很少	-3372
总和	-3373
感到	-3374
才是	-3375
指令	-3376
掌控	-3377
收复	-3378
教堂	-3379
时任	-3380
案件	-3381
治理	-3382
派的	-3383
清军	-3384
珠江	-3385
用以	-3386
用作	-3387
的先	-3388
的水	-3389
的法	-3390
的海	-3391
硬件	-3392
神经	-3393
经由	-3394
网际	-3395
职务	-3396
记者	-3397
质疑	-3398
距今	-3399
车站	-3400
这里	-3401
随即	-3402
页面	-3403
高山	-3404
140	-3405
2.5	-3406
ice	-3407
ist	-3408
log	-3409
▁鲁迅	-3410
。20	-3411
内容的	-3412
创立了	-3413
古埃及	-3414
唐朝的	-3415
国旗的	-3416
在一些	-3417
在法国	-3418
德国和	-3419
更名为	-3420
的原因	-3421
程度的	-3422
音乐人	-3423
,198	-3424
2020	-3425
体育运动	-3426
程序设计	-3427
自然科学	-3428
除此之外	-3429
。1945	-3430
。2016	-3431
俄罗斯联邦	-3432
▁中华人民共和国	-3433
,7	-3434
78	-3435
▁K	-3436
一同	-3437
三次	-3438
丝绸	-3439
中叶	-3440
主角	-3441
储存	-3442
其为	-3443
内阁	-3444
十万	-3445
升旗	-3446
只要	-3447
叫做	-3448
商朝	-3449
奴隶	-3450
已知	-3451
并无	-3452
建制	-3453
当前	-3454
德的	-3455
战败	-3456
探测	-3457
是从	-3458
月的	-3459
权威	-3460
杨骏	-3461
江北	-3462
泰国	-3463
深远	-3464
清真	-3465
源地	-3466
物资	-3467
瓦解	-3468
百万	-3469
科研	-3470
群体	-3471
自称	-3472
良好	-3473
芬兰	-3474
苗族	-3475
过度	-3476
还在	-3477
这段	-3478
遭受	-3479
部长	-3480
附属	-3481
面向	-3482
颁发	-3483
颁奖	-3484
。16	-3485
为主的	-3486
但由于	-3487
成立了	-3488
汉武帝	-3489
河间王	-3490
的一些	-3491
的国际	-3492
的部分	-3493
葡萄牙	-3494
试验区	-3495
还包括	-3496
1998	-3497
呼伦贝尔	-3498
战国时期	-3499
维基媒体	-3500
网际网路	-3501
。2008	-3502
人大常委会	-3503
地区生产总值	-3504
,9	-3505
5%	-3506
74	-3507
91	-3508
93	-3509
ir	-3510
▁m	-3511
、1	-3512
七年	-3513
东正	-3514
东经	-3515
之变	-3516
产出	-3517
令人	-3518
会员	-3519
入境	-3520
公尺	-3521
共享	-3522
内外	-3523
出席	-3524
前期	-3525
北纬	-3526
台地	-3527
喜剧	-3528
回答	-3529
图像	-3530
地中	-3531
地利	-3532
垄断	-3533
多人	-3534
她的	-3535
子的	-3536
带有	-3537
干预	-3538
建构	-3539
当今	-3540
影片	-3541
戏曲	-3542
成的	-3543
战乱	-3544
战线	-3545
房屋	-3546
提名	-3547
收集	-3548
无线	-3549
景点	-3550
末期	-3551
构造	-3552
柏林	-3553
检查	-3554
正义	-3555
武昌	-3556
毕达	-3557
水准	-3558
沟通	-3559
河川	-3560
流通	-3561
测试	-3562
海河	-3563
电磁	-3564
留下	-3565
的分	-3566
监察	-3567
看作	-3568
短暂	-3569
私人	-3570
耕地	-3571
街道	-3572
西哥	-3573
词汇	-3574
语的	-3575
贵阳	-3576
越国	-3577
身体	-3578
钢铁	-3579
降雨	-3580
预计	-3581
驱动	-3582
180	-3583
oci	-3584
our	-3585
▁到了	-3586
▁现代	-3587
不同于	-3588
中国人	-3589
为主要	-3590
主义和	-3591
主义者	-3592
人类的	-3593
兴安岭	-3594
占全省	-3595
发现的	-3596
台北市	-3597
吉林市	-3598
哥拉斯	-3599
基本上	-3600
大总统	-3601
天津的	-3602
年以后	-3603
得到了	-3604
王朝的	-3605
电影节	-3606
的其他	-3607
的学生	-3608
的民族	-3609
研究所	-3610
秦始皇	-3611
程度上	-3612
记忆体	-3613
临时政府	-3614
历史悠久	-3615
西方国家	-3616
轨道交通	-3617
香港电影	-3618
。2006	-3619
。2017	-3620
仓颉输入法	-3621
毕达哥拉斯	-3622
青天白日满地红旗	-3623
中华人民共和国成立后	-3624
Go	-3625
ul	-3626
▁「	-3627
上有	-3628
之路	-3629
以此	-3630
修筑	-3631
入学	-3632
全忠	-3633
公理	-3634
则为	-3635
变迁	-3636
台南	-3637
各大	-3638
固定	-3639
国外	-3640
在一	-3641
大奖	-3642
女真	-3643
密集	-3644
导演	-3645
尚书	-3646
州府	-3647
年由	-3648
度的	-3649
开启	-3650
情绪	-3651
摄影	-3652
斯拉	-3653
日的	-3654
服饰	-3655
朝政	-3656
本人	-3657
李克	-3658
歌词	-3659
气体	-3660
水利	-3661
消息	-3662
演变	-3663
省区	-3664
祭祀	-3665
筹备	-3666
精确	-3667
组建	-3668
藏族	-3669
西欧	-3670
评选	-3671
话剧	-3672
路军	-3673
较多	-3674
辛格	-3675
进口	-3676
违反	-3677
遗迹	-3678
金朝	-3679
阅读	-3680
香山	-3681
▁此外	-3682
一些人	-3683
三角洲	-3684
东突厥	-3685
交易所	-3686
和社会	-3687
哲学的	-3688
年以来	-3689
总里程	-3690
战争的	-3691
是为了	-3692
服务业	-3693
朱全忠	-3694
的大型	-3695
的工作	-3696
的音乐	-3697
被誉为	-3698
重工业	-3699
重庆的	-3700
▁GPL	-3701
世界第一	-3702
二十世纪	-3703
保护单位	-3704
全国平均	-3705
城际铁路	-3706
市场经济	-3707
最著名的	-3708
常务委员会	-3709
中国人民银行	-3710
、2	-3711
三民	-3712
上述	-3713
两次	-3714
中也	-3715
为人	-3716
之意	-3717
五角	-3718
交互	-3719
交换	-3720
人与	-3721
会被	-3722
公式	-3723
其在	-3724
典范	-3725
冷战	-3726
出土	-3727
则以	-3728
动作	-3729
十五	-3730
南诏	-3731
响应	-3732
复制	-3733
奖项	-3734
妇女	-3735
官僚	-3736
寿命	-3737
封锁	-3738
归纳	-3739
得名	-3740
德语	-3741
总额	-3742
情感	-3743
意为	-3744
成绩	-3745
打败	-3746
撤离	-3747
支流	-3748
改编	-3749
攻打	-3750
新罗	-3751
是不	-3752
是最	-3753
曾在	-3754
朝代	-3755
机车	-3756
条例	-3757
某个	-3758
格尔	-3759
检验	-3760
楚国	-3761
正统	-3762
每日	-3763
江淮	-3764
法案	-3765
流动	-3766
浦东	-3767
海域	-3768
渐渐	-3769
漠北	-3770
潜在	-3771
澳洲	-3772
牛顿	-3773
特性	-3774
理由	-3775
生存	-3776
畲族	-3777
福利	-3778
福州	-3779
私有	-3780
等国	-3781
维亚	-3782
虚拟	-3783
行的	-3784
观众	-3785
诗歌	-3786
足够	-3787
远东	-3788
遍布	-3789
遵循	-3790
都城	-3791
金曲	-3792
雅典	-3793
黄兴	-3794
120	-3795
800	-3796
ran	-3797
▁山东	-3798
中医药	-3799
主要以	-3800
主要由	-3801
了一个	-3802
产品的	-3803
伦理学	-3804
全国第	-3805
历史的	-3806
在校生	-3807
复杂的	-3808
宝安县	-3809
年中国	-3810
开发者	-3811
总产值	-3812
技术的	-3813
有可能	-3814
有超过	-3815
来解释	-3816
根据地	-3817
浏览器	-3818
瓦辛格	-3819
等方面	-3820
而来的	-3821
范围内	-3822
追溯到	-3823
1989	-3824
。189	-3825
人工智慧	-3826
位居全国	-3827
历史学家	-3828
形而上学	-3829
有限公司	-3830
物理学者	-3831
维吾尔族	-3832
诺贝尔奖	-3833
部分地区	-3834
高新技术	-3835
▁2016	-3836
。2007	-3837
。2012	-3838
主要分布在	-3839
新石器时代	-3840
旧石器时代	-3841
是中国大陆	-3842
阿那克西曼	-3843
次全国代表大会	-3844
(7	-3845
,1	-3846
1/	-3847
98	-3848
▁c	-3849
▁p	-3850
不但	-3851
东欧	-3852
个省	-3853
中都	-3854
之处	-3855
五色	-3856
亳州	-3857
仅仅	-3858
保有	-3859
保罗	-3860
全民	-3861
公署	-3862
六国	-3863
具备	-3864
冲击	-3865
利润	-3866
加工	-3867
化工	-3868
北非	-3869
十三	-3870
千元	-3871
华侨	-3872
即为	-3873
厦门	-3874
合理	-3875
名词	-3876
周年	-3877
品质	-3878
回鹘	-3879
土耳	-3880
外部	-3881
太空	-3882
奥斯	-3883
小型	-3884
就读	-3885
工资	-3886
差距	-3887
建都	-3888
必要	-3889
惠帝	-3890
感觉	-3891
成分	-3892
提倡	-3893
支配	-3894
放在	-3895
日后	-3896
日治	-3897
日照	-3898
日起	-3899
杀害	-3900
民营	-3901
气象	-3902
汉代	-3903
沙漠	-3904
波罗	-3905
消失	-3906
涵盖	-3907
混乱	-3908
现存	-3909
现时	-3910
畜牧	-3911
研发	-3912
神学	-3913
第八	-3914
约为	-3915
纺织	-3916
美丽	-3917
肺炎	-3918
至于	-3919
若干	-3920
英军	-3921
药物	-3922
评估	-3923
语法	-3924
货物	-3925
超越	-3926
辽阔	-3927
迁移	-3928
进展	-3929
通航	-3930
道家	-3931
防御	-3932
(19	-3933
ell	-3934
▁北京	-3935
▁另外	-3936
▁尽管	-3937
与中国	-3938
东北部	-3939
为台湾	-3940
分布于	-3941
划分为	-3942
发布的	-3943
台湾人	-3944
土耳其	-3945
在欧洲	-3946
地中海	-3947
奥地利	-3948
教育的	-3949
数学家	-3950
旅游业	-3951
沙群岛	-3952
流行的	-3953
的出现	-3954
的文学	-3955
的知识	-3956
的编辑	-3957
的过程	-3958
第一届	-3959
联邦管	-3960
自由的	-3961
获得了	-3962
设计的	-3963
1940	-3964
1956	-3965
1996	-3966
个市辖区	-3967
同时也是	-3968
大规模的	-3969
年代开始	-3970
年降水量	-3971
朝鲜半岛	-3972
民间信仰	-3973
相互作用	-3974
第三产业	-3975
组成部分	-3976
通用公共	-3977
风景名胜	-3978
▁2015	-3979
。2013	-3980
占总人口的	-3981
特别行政区	-3982
语言版本的	-3983
▁亚里士多德	-3984
中国共产党在	-3985
文物保护单位	-3986
中国共产党第十	-3987
▁广西壮族自治区	-3988
,3	-3989
,8	-3990
1.	-3991
EC	-3992
」;	-3993
一体	-3994
三种	-3995
不到	-3996
书写	-3997
事情	-3998
交给	-3999
会上	-4000
作曲	-4001
充分	-4002
克斯	-4003
兵力	-4004
写作	-4005
军官	-4006
删除	-4007
到达	-4008
前者	-4009
十四	-4010
南岛	-4011
县城	-4012
参见	-4013
句丽	-4014
史学	-4015
各式	-4016
启蒙	-4017
四季	-4018
团结	-4019
在中	-4020
城堡	-4021
女子	-4022
孩子	-4023
安东	-4024
完美	-4025
宣宗	-4026
宰相	-4027
小麦	-4028
岭南	-4029
工艺	-4030
已被	-4031
强化	-4032
形的	-4033
怀疑	-4034
总结	-4035
想要	-4036
打破	-4037
护府	-4038
拥立	-4039
指标	-4040
散文	-4041
方便	-4042
更高	-4043
杀死	-4044
标赛	-4045
橄榄	-4046
欧美	-4047
永乐	-4048
河口	-4049
流派	-4050
湖广	-4051
火山	-4052
爱国	-4053
界的	-4054
的中	-4055
的内	-4056
看到	-4057
真理	-4058
确认	-4059
移动	-4060
移植	-4061
算术	-4062
线上	-4063
舟山	-4064
荣誉	-4065
行使	-4066
识别	-4067
贾后	-4068
资格	-4069
车辆	-4070
辅助	-4071
达姆	-4072
迁徙	-4073
这项	-4074
迫使	-4075
遵守	-4076
郑州	-4077
配合	-4078
采纳	-4079
长子	-4080
阻止	-4081
限于	-4082
随之	-4083
青藏	-4084
驱逐	-4085
齐国	-4086
BSD	-4087
NIX	-4088
▁亚洲	-4089
▁天津	-4090
不可能	-4091
与苏联	-4092
举办的	-4093
其中有	-4094
出现在	-4095
副省级	-4096
另一种	-4097
城市的	-4098
墨西哥	-4099
尼西亚	-4100
山山脉	-4101
巨大的	-4102
并不是	-4103
成员国	-4104
战争中	-4105
政府在	-4106
教科书	-4107
最高峰	-4108
泰勒斯	-4109
湖北省	-4110
的台湾	-4111
的系统	-4112
的结构	-4113
综合性	-4114
自然数	-4115
自然的	-4116
认为是	-4117
锦标赛	-4118
1955	-4119
1979	-4120
三民主义	-4121
中华民族	-4122
以及其他	-4123
的基础上	-4124
经济学的	-4125
联邦管区	-4126
▁2010	-4127
。1978	-4128
天安门广场	-4129
自由软件基金会	-4130
中华人民共和国的	-4131
IS	-4132
RS	-4133
se	-4134
th	-4135
”)	-4136
。(	-4137
。1	-4138
。「	-4139
一九	-4140
一位	-4141
业余	-4142
中最	-4143
为大	-4144
乐队	-4145
京沪	-4146
仅为	-4147
以其	-4148
传承	-4149
保守	-4150
像奖	-4151
克兰	-4152
公立	-4153
共计	-4154
其次	-4155
出发	-4156
列岛	-4157
列强	-4158
前后	-4159
办法	-4160
动机	-4161
北魏	-4162
南山	-4163
历代	-4164
可靠	-4165
名列	-4166
唐军	-4167
型态	-4168
塞尔	-4169
多于	-4170
大体	-4171
天宝	-4172
太后	-4173
季节	-4174
将会	-4175
尺度	-4176
崩溃	-4177
工农	-4178
巩固	-4179
年龄	-4180
庞大	-4181
开设	-4182
强大	-4183
强盛	-4184
恶化	-4185
悬挂	-4186
报道	-4187
拼音	-4188
拿破	-4189
探讨	-4190
接收	-4191
改良	-4192
数个	-4193
星期	-4194
月初	-4195
来到	-4196
来看	-4197
格式	-4198
框架	-4199
步行	-4200
毛利	-4201
涪陵	-4202
深刻	-4203
物价	-4204
特勒	-4205
犹太	-4206
王室	-4207
的子	-4208
礼仪	-4209
秘密	-4210
移居	-4211
突出	-4212
类的	-4213
繁体	-4214
职位	-4215
股份	-4216
膨胀	-4217
自主	-4218
自立	-4219
色彩	-4220
荆州	-4221
融入	-4222
西夏	-4223
要素	-4224
论文	-4225
译为	-4226
说是	-4227
财产	-4228
赋予	-4229
转向	-4230
迁入	-4231
通商	-4232
邀请	-4233
部族	-4234
重建	-4235
金门	-4236
院长	-4237
食物	-4238
(13	-4239
一直到	-4240
东正教	-4241
丰富的	-4242
今河南	-4243
任理事	-4244
例如在	-4245
其中的	-4246
办事处	-4247
参与者	-4248
和政治	-4249
在深圳	-4250
奠定了	-4251
山文化	-4252
工业化	-4253
已成为	-4254
或其他	-4255
拿破仑	-4256
控制了	-4257
斯拉夫	-4258
是一门	-4259
有一些	-4260
来研究	-4261
林纳斯	-4262
民主党	-4263
的主题	-4264
的土地	-4265
的应用	-4266
的资料	-4267
知名的	-4268
第一条	-4269
等问题	-4270
类似的	-4271
美国在	-4272
致力于	-4273
萨达姆	-4274
西南部	-4275
这两个	-4276
金像奖	-4277
隶属于	-4278
面积的	-4279
高句丽	-4280
1992	-4281
3000	-4282
▁189	-4283
三分之一	-4284
个地级市	-4285
代数数域	-4286
已经成为	-4287
的摩托车	-4288
美国总统	-4289
行政区域	-4290
▁2017	-4291
。2003	-4292
自然保护区	-4293
中华民国宪法	-4294
历史文化名城	-4295
%)	-4296
(3	-4297
,4	-4298
94	-4299
An	-4300
eg	-4301
ft	-4302
。4	-4303
个州	-4304
中兴	-4305
中药	-4306
为界	-4307
主观	-4308
举例	-4309
乔治	-4310
二次	-4311
五四	-4312
交战	-4313
亲自	-4314
人所	-4315
介石	-4316
代替	-4317
以便	-4318
休闲	-4319
传染	-4320
依次	-4321
侵犯	-4322
候选	-4323
党旗	-4324
军人	-4325
则天	-4326
剩余	-4327
化石	-4328
印刷	-4329
发射	-4330
发挥	-4331
变量	-4332
台风	-4333
名人	-4334
哥伦	-4335
四世	-4336
在该	-4337
埃尔	-4338
增速	-4339
声明	-4340
处的	-4341
大同	-4342
实时	-4343
密码	-4344
射线	-4345
屠杀	-4346
常被	-4347
干燥	-4348
干部	-4349
形状	-4350
志愿	-4351
情形	-4352
想像	-4353
所属	-4354
护照	-4355
数值	-4356
数十	-4357
数次	-4358
整理	-4359
无限	-4360
景区	-4361
本原	-4362
欧元	-4363
民生	-4364
治安	-4365
洪武	-4366
淡江	-4367
温州	-4368
湿润	-4369
灵魂	-4370
灾害	-4371
爆炸	-4372
生成	-4373
男子	-4374
疫情	-4375
的原	-4376
相连	-4377
私立	-4378
秦汉	-4379
竞赛	-4380
精卫	-4381
纯粹	-4382
纸币	-4383
继任	-4384
考察	-4385
脚本	-4386
自此	-4387
营运	-4388
西元	-4389
西站	-4390
解体	-4391
认可	-4392
诺曼	-4393
转化	-4394
转型	-4395
轰炸	-4396
辖市	-4397
里亚	-4398
金牌	-4399
隶属	-4400
预期	-4401
黔江	-4402
1.3	-4403
all	-4404
▁OS	-4405
▁唐朝	-4406
▁孔子	-4407
万公顷	-4408
了一些	-4409
五角星	-4410
会议上	-4411
包括有	-4412
发明了	-4413
发行的	-4414
国时期	-4415
在重庆	-4416
多年的	-4417
察哈尔	-4418
尔多斯	-4419
年代初	-4420
开始在	-4421
所谓的	-4422
支持者	-4423
是法国	-4424
是美国	-4425
杜鹃花	-4426
武则天	-4427
江西省	-4428
清真寺	-4429
的不同	-4430
的学科	-4431
的宗教	-4432
的法律	-4433
的物质	-4434
的目的	-4435
相同的	-4436
蒋介石	-4437
.5%。	-4438
ogle	-4439
中国古代	-4440
也就是说	-4441
也是中国	-4442
交通枢纽	-4443
人口密度	-4444
作为一个	-4445
商业中心	-4446
外交关系	-4447
师范大学	-4448
平方千米	-4449
正式成立	-4450
的影响力	-4451
离散数学	-4452
绝大部分	-4453
行中书省	-4454
鄂尔多斯	-4455
野生动物	-4456
青藏高原	-4457
Inter	-4458
。1979	-4459
。1992	-4460
人口最多的	-4461
风景名胜区	-4462
中央人民政府	-4463
阿那克西曼德	-4464
维基媒体基金会	-4465
")	-4466
CC	-4467
。3	-4468
万张	-4469
上下	-4470
下设	-4471
不愿	-4472
世袭	-4473
东夷	-4474
之际	-4475
亦即	-4476
仍在	-4477
他是	-4478
任用	-4479
但他	-4480
但因	-4481
依旧	-4482
侵略	-4483
便利	-4484
元璋	-4485
克里	-4486
关东	-4487
军政	-4488
划入	-4489
刘邦	-4490
利福	-4491
前身	-4492
剧种	-4493
割让	-4494
加州	-4495
南朝	-4496
县的	-4497
变法	-4498
各项	-4499
含义	-4500
商务	-4501
回应	-4502
国都	-4503
在建	-4504
外资	-4505
大夫	-4506
大理	-4507
大败	-4508
天府	-4509
女儿	-4510
孙与	-4511
学位	-4512
它是	-4513
安德	-4514
定期	-4515
宣战	-4516
将近	-4517
尊重	-4518
尚未	-4519
层次	-4520
层面	-4521
居第	-4522
山等	-4523
市民	-4524
干涉	-4525
广告	-4526
度假	-4527
开辟	-4528
弟子	-4529
当然	-4530
心灵	-4531
战事	-4532
戴高	-4533
手机	-4534
排列	-4535
排版	-4536
排除	-4537
接待	-4538
接管	-4539
支出	-4540
攻下	-4541
政协	-4542
斯密	-4543
时尚	-4544
月中	-4545
有机	-4546
此一	-4547
民用	-4548
河谷	-4549
法官	-4550
流量	-4551
浩特	-4552
海岛	-4553
添加	-4554
煤炭	-4555
申请	-4556
登陆	-4557
百姓	-4558
的不	-4559
盛世	-4560
相较	-4561
福田	-4562
第九	-4563
管道	-4564
罗湖	-4565
英法	-4566
蓬勃	-4567
表面	-4568
解答	-4569
辩证	-4570
进程	-4571
退出	-4572
通行	-4573
遭遇	-4574
重的	-4575
阶层	-4576
隋唐	-4577
隔年	-4578
风俗	-4579
验证	-4580
高祖	-4581
,10	-4582
DOS	-4583
ers	-4584
ess	-4585
ine	-4586
ity	-4587
▁16	-4588
▁然而	-4589
▁许多	-4590
不平等	-4591
世界杯	-4592
中国家	-4593
中西部	-4594
也成为	-4595
了许多	-4596
人认为	-4597
以来的	-4598
北京的	-4599
及以上	-4600
和日本	-4601
完整的	-4602
客家话	-4603
对社会	-4604
年左右	-4605
思想家	-4606
戴高乐	-4607
时间的	-4608
朱元璋	-4609
橄榄球	-4610
死亡率	-4611
王司马	-4612
理论和	-4613
生育率	-4614
的一支	-4615
的名称	-4616
的权力	-4617
的比重	-4618
的现象	-4619
的目标	-4620
的美国	-4621
的自由	-4622
的要求	-4623
的角色	-4624
真正的	-4625
设立了	-4626
进出口	-4627
都护府	-4628
香港的	-4629
.1%,	-4630
.4%,	-4631
1987	-4632
SARS	-4633
世纪中叶	-4634
国家重点	-4635
城市之一	-4636
行政长官	-4637
这一时期	-4638
长江大桥	-4639
,2008	-4640
pedia	-4641
。1990	-4642
之间的关系	-4643
军事委员会	-4644
国务院总理	-4645
年平均气温	-4646
月平均气温	-4647
阿尔巴尼亚人	-4648
ational	-4649
(0	-4650
96	-4651
ro	-4652
▁X	-4653
▁据	-4654
》;	-4655
一批	-4656
下半	-4657
业务	-4658
两年	-4659
两浙	-4660
严谨	-4661
个别	-4662
个月	-4663
为帝	-4664
主动	-4665
之父	-4666
之首	-4667
也曾	-4668
五胡	-4669
介面	-4670
优先	-4671
修订	-4672
像是	-4673
八大	-4674
公平	-4675
公约	-4676
其所	-4677
兼容	-4678
出任	-4679
函数	-4680
则会	-4681
加快	-4682
包围	-4683
包头	-4684
华盛	-4685
单独	-4686
句话	-4687
合唱	-4688
同比	-4689
吴语	-4690
国籍	-4691
地点	-4692
地面	-4693
培训	-4694
安县	-4695
安装	-4696
宋庆	-4697
宏观	-4698
实用	-4699
就会	-4700
尼斯	-4701
属性	-4702
山和	-4703
差别	-4704
常用	-4705
干旱	-4706
年为	-4707
年份	-4708
广阔	-4709
康德	-4710
张方	-4711
形势	-4712
形容	-4713
影视	-4714
微观	-4715
必烈	-4716
报业	-4717
拉尔	-4718
指示	-4719
推论	-4720
撤退	-4721
政变	-4722
教义	-4723
日语	-4724
曹操	-4725
服装	-4726
期刊	-4727
桂林	-4728
此类	-4729
段祺	-4730
比利	-4731
水稻	-4732
河西	-4733
海和	-4734
烟台	-4735
特质	-4736
王的	-4737
现辖	-4738
生的	-4739
用途	-4740
百家	-4741
直属	-4742
祥地	-4743
等的	-4744
简体	-4745
纬度	-4746
经费	-4747
结论	-4748
而来	-4749
自从	-4750
自杀	-4751
草原	-4752
获取	-4753
衰退	-4754
警察	-4755
认定	-4756
论证	-4757
论述	-4758
边际	-4759
运算	-4760
还原	-4761
选出	-4762
通称	-4763
金国	-4764
链接	-4765
阿里	-4766
领地	-4767
风险	-4768
马斯	-4769
黄巢	-4770
TeX	-4771
art	-4772
ire	-4773
pen	-4774
、10	-4775
万亿元	-4776
东南部	-4777
其中在	-4778
凯尔特	-4779
制造商	-4780
去世后	-4781
及其他	-4782
命名为	-4783
和技术	-4784
和法国	-4785
在当时	-4786
在政治	-4787
在经济	-4788
在这个	-4789
境内的	-4790
宋庆龄	-4791
对中国	-4792
市场的	-4793
忽必烈	-4794
文学家	-4795
是台湾	-4796
是深圳	-4797
欧洲的	-4798
段祺瑞	-4799
注音文	-4800
然而在	-4801
理事会	-4802
的上海	-4803
的世界	-4804
的所有	-4805
的运动	-4806
研究者	-4807
立方米	-4808
经济区	-4809
统治者	-4810
西部的	-4811
轻工业	-4812
长沙王	-4813
.2%,	-4814
1952	-4815
1953	-4816
1986	-4817
▁GNU	-4818
个县级市	-4819
五星红旗	-4820
地理位置	-4821
年代以来	-4822
快速发展	-4823
施瓦辛格	-4824
最受欢迎	-4825
此外还有	-4826
滨海新区	-4827
理工学院	-4828
自治政府	-4829
航空公司	-4830
裔美国人	-4831
重要地位	-4832
,2007	-4833
▁1980	-4834
▁2012	-4835
。2011	-4836
中国大陆的	-4837
重庆主城区	-4838
Google	-4839
语言版本的维基百科	-4840
中国人民政治协商会议	-4841
(“	-4842
1%	-4843
92	-4844
MA	-4845
ab	-4846
ha	-4847
”;	-4848
▁3	-4849
▁V	-4850
一部	-4851
一门	-4852
上古	-4853
不受	-4854
与唐	-4855
世祖	-4856
两人	-4857
为何	-4858
主任	-4859
之乡	-4860
之初	-4861
乐团	-4862
争取	-4863
亚历	-4864
他人	-4865
他还	-4866
例外	-4867
全集	-4868
公孙	-4869
公认	-4870
兼并	-4871
几年	-4872
分割	-4873
分属	-4874
分明	-4875
列车	-4876
利斯	-4877
剧场	-4878
单词	-4879
印象	-4880
变动	-4881
叛军	-4882
合称	-4883
同志	-4884
告诉	-4885
周期	-4886
和南	-4887
和新	-4888
噶尔	-4889
回忆	-4890
国和	-4891
地级	-4892
均有	-4893
城邦	-4894
大军	-4895
大区	-4896
大师	-4897
大楼	-4898
大食	-4899
孙秀	-4900
实体	-4901
对比	-4902
封建	-4903
市和	-4904
并有	-4905
建于	-4906
引力	-4907
往来	-4908
所辖	-4909
捷运	-4910
搜索	-4911
支那	-4912
改进	-4913
效应	-4914
数千	-4915
整合	-4916
旅行	-4917
替代	-4918
有大	-4919
朋友	-4920
松江	-4921
歧视	-4922
民俗	-4923
水电	-4924
法定	-4925
深受	-4926
港区	-4927
漏洞	-4928
率先	-4929
玉米	-4930
界面	-4931
登记	-4932
白色	-4933
的开	-4934
皇室	-4935
相望	-4936
神的	-4937
票房	-4938
私营	-4939
紧密	-4940
编码	-4941
网志	-4942
老师	-4943
职权	-4944
肯定	-4945
航运	-4946
落后	-4947
蔬菜	-4948
行驶	-4949
西医	-4950
警告	-4951
讯息	-4952
远古	-4953
选手	-4954
途中	-4955
配套	-4956
金马	-4957
雍正	-4958
顾问	-4959
预算	-4960
颜色	-4961
高层	-4962
高峰	-4963
)、《	-4964
,18	-4965
2.0	-4966
Mac	-4967
ica	-4968
now	-4969
▁in	-4970
▁为了	-4971
严重的	-4972
中央集	-4973
之一的	-4974
也没有	-4975
于中国	-4976
以下的	-4977
众多的	-4978
伟大的	-4979
传佛教	-4980
传教士	-4981
体育场	-4982
军政府	-4983
出版的	-4984
动植物	-4985
十字军	-4986
华盛顿	-4987
国内外	-4988
在国际	-4989
外蒙古	-4990
大学的	-4991
大部份	-4992
常用的	-4993
庞大的	-4994
改名为	-4995
无论是	-4996
日批准	-4997
更多的	-4998
服务器	-4999
步行街	-5000
每一个	-5001
民族的	-5002
爆发后	-5003
特殊的	-5004
现在的	-5005
甘肃省	-5006
电视剧	-5007
的东西	-5008
的华人	-5009
的技术	-5010
的支持	-5011
的数据	-5012
的文章	-5013
的生产	-5014
的软件	-5015
研究生	-5016
程序员	-5017
第二个	-5018
统一的	-5019
设立的	-5020
贡献者	-5021
较高的	-5022
这也是	-5023
集中于	-5024
面积为	-5025
风格的	-5026
.7%。	-5027
1500	-5028
1930	-5029
1936	-5030
1941	-5031
ence	-5032
中国第一	-5033
农业生产	-5034
博客作者	-5035
古代中国	-5036
向量空间	-5037
在历史上	-5038
套人民币	-5039
布政使司	-5040
常任理事	-5041
开放内容	-5042
意识形态	-5043
成为当时	-5044
文艺复兴	-5045
条目内容	-5046
欧亚大陆	-5047
程式语言	-5048
空气污染	-5049
第二产业	-5050
金融中心	-5051
▁2005	-5052
▁2007	-5053
▁2008	-5054
。1950	-5055
。1958	-5056
。1980	-5057
改革开放后	-5058
规模最大的	-5059
Intern	-5060
亚里士多德的	-5061
社会主义国家	-5062
阿尔巴尼亚的	-5063
▁中文维基百科	-5064
中国共产党章程	-5065
",	-5066
(4	-5067
if	-5068
▁I	-5069
▁、	-5070
、5	-5071
一家	-5072
一项	-5073
专政	-5074
两位	-5075
中全	-5076
中所	-5077
中立	-5078
为王	-5079
之时	-5080
也对	-5081
也很	-5082
书法	-5083
二战	-5084
二百	-5085
亦为	-5086
亿吨	-5087
介入	-5088
但也	-5089
作法	-5090
使其	-5091
值得	-5092
做法	-5093
先秦	-5094
光明	-5095
入海	-5096
八年	-5097
公爵	-5098
其顿	-5099
写的	-5100
军委	-5101
击溃	-5102
分之	-5103
分钟	-5104
动荡	-5105
十月	-5106
升格	-5107
华南	-5108
印尼	-5109
却是	-5110
历经	-5111
县市	-5112
又被	-5113
古斯	-5114
史记	-5115
叶林	-5116
号称	-5117
向西	-5118
吴国	-5119
周朝	-5120
品种	-5121
四种	-5122
在他	-5123
地址	-5124
塘江	-5125
增强	-5126
声乐	-5127
大于	-5128
大省	-5129
宗室	-5130
家庄	-5131
寻找	-5132
小吃	-5133
就任	-5134
岸线	-5135
嵌入	-5136
平话	-5137
年与	-5138
幼儿	-5139
强国	-5140
归类	-5141
得知	-5142
总长	-5143
情报	-5144
我的	-5145
戒严	-5146
户口	-5147
提及	-5148
收藏	-5149
攻陷	-5150
政局	-5151
数理	-5152
施行	-5153
暴力	-5154
最少	-5155
月起	-5156
术语	-5157
李渊	-5158
格兰	-5159
武宗	-5160
武术	-5161
永久	-5162
河等	-5163
法的	-5164
派出	-5165
派系	-5166
测绘	-5167
海关	-5168
清楚	-5169
游牧	-5170
源头	-5171
炀帝	-5172
父母	-5173
病人	-5174
百货	-5175
的首	-5176
皇后	-5177
社团	-5178
立即	-5179
策划	-5180
米利	-5181
紧张	-5182
累计	-5183
约法	-5184
线性	-5185
结婚	-5186
给了	-5187
而后	-5188
胡锦	-5189
船舶	-5190
花费	-5191
血统	-5192
补充	-5193
被杀	-5194
观光	-5195
议员	-5196
请求	-5197
较小	-5198
进制	-5199
郡县	-5200
都不	-5201
银河	-5202
阵营	-5203
阿诺	-5204
题材	-5205
黄色	-5206
龙岗	-5207
1.5	-5208
cod	-5209
ics	-5210
”,“	-5211
▁其中	-5212
▁四川	-5213
▁对于	-5214
▁除了	-5215
一开始	-5216
万年前	-5217
与美国	-5218
东部的	-5219
个百分	-5220
主要为	-5221
之所以	-5222
事物的	-5223
亚历山	-5224
任何人	-5225
农产品	-5226
创始人	-5227
加利福	-5228
原始码	-5229
取得了	-5230
受教育	-5231
和民族	-5232
哈萨克	-5233
在西方	-5234
失业率	-5235
州刺史	-5236
希特勒	-5237
希腊人	-5238
当地的	-5239
所在地	-5240
日本的	-5241
最佳男	-5242
月中旬	-5243
朝鲜族	-5244
标准的	-5245
满洲国	-5246
理查德	-5247
留学生	-5248
的权利	-5249
的核心	-5250
的计划	-5251
立法院	-5252
第三次	-5253
第二位	-5254
经常被	-5255
编译器	-5256
编辑者	-5257
胡锦涛	-5258
自行车	-5259
英国的	-5260
计划在	-5261
资源的	-5262
较多的	-5263
近现代	-5264
部队的	-5265
金融业	-5266
钱塘江	-5267
非物质	-5268
马其顿	-5269
.2%。	-5270
.6%。	-5271
.8%,	-5272
.9%,	-5273
1912	-5274
1920	-5275
1948	-5276
1971	-5277
1976	-5278
ogra	-5279
丝绸之路	-5280
中国经济	-5281
另外还有	-5282
基础设施	-5283
天文学家	-5284
建立一个	-5285
总人口的	-5286
柏拉图的	-5287
电脑游戏	-5288
研究中心	-5289
统一中国	-5290
苏联解体	-5291
▁2003	-5292
▁2011	-5293
。2000	-5294
。2004	-5295
加利福尼亚	-5296
国务院批准	-5297
常任理事国	-5298
西藏自治区	-5299
nowiki	-5300
特色社会主义	-5301
阿尔巴尼亚政府	-5302
ay	-5303
ee	-5304
ll	-5305
qu	-5306
ub	-5307
──	-5308
▁l	-5309
▁前	-5310
▁唐	-5311
。5	-5312
一千	-5313
一名	-5314
一场	-5315
一届	-5316
一百	-5317
三百	-5318
专制	-5319
专有	-5320
东莞	-5321
中会	-5322
中俄	-5323
二字	-5324
五十	-5325
亚太	-5326
京师	-5327
人生	-5328
从未	-5329
会稽	-5330
余年	-5331
余种	-5332
倡导	-5333
党内	-5334
典籍	-5335
凝聚	-5336
则将	-5337
制订	-5338
加速	-5339
动力	-5340
化和	-5341
即时	-5342
厂商	-5343
反击	-5344
反战	-5345
发音	-5346
古城	-5347
古巴	-5348
嘉兴	-5349
回纥	-5350
国徽	-5351
国锋	-5352
在前	-5353
地表	-5354
塑造	-5355
士良	-5356
大权	-5357
太祖	-5358
奉天	-5359
威廉	-5360
媒介	-5361
安庆	-5362
完备	-5363
就业	-5364
岩石	-5365
巢湖	-5366
带动	-5367
并为	-5368
弗朗	-5369
得主	-5370
战时	-5371
找出	-5372
摆脱	-5373
支付	-5374
攻入	-5375
文中	-5376
文档	-5377
文革	-5378
时报	-5379
晚年	-5380
晚报	-5381
更新	-5382
最长	-5383
月份	-5384
李鸿	-5385
格达	-5386
案例	-5387
棉花	-5388
正面	-5389
民变	-5390
沙俄	-5391
沿袭	-5392
法属	-5393
涌入	-5394
清初	-5395
炯明	-5396
热河	-5397
煤矿	-5398
环保	-5399
环球	-5400
瑞典	-5401
生长	-5402
的书	-5403
的交	-5404
的后	-5405
皇家	-5406
示范	-5407
科索	-5408
竞技	-5409
缩写	-5410
者为	-5411
而有	-5412
耕作	-5413
聊斋	-5414
联络	-5415
范阳	-5416
萨斯	-5417
行列	-5418
见的	-5419
视觉	-5420
解除	-5421
论者	-5422
费用	-5423
走廊	-5424
起了	-5425
起诉	-5426
跃进	-5427
边疆	-5428
边的	-5429
迁到	-5430
过于	-5431
这场	-5432
遵义	-5433
阴阳	-5434
集会	-5435
鲜明	-5436
221	-5437
ack	-5438
ang	-5439
ese	-5440
mer	-5441
▁不过	-5442
▁其他	-5443
万公里	-5444
不存在	-5445
个人的	-5446
中使用	-5447
为国家	-5448
了大量	-5449
五代十	-5450
以外的	-5451
八路军	-5452
农作物	-5453
北美洲	-5454
占领了	-5455
发生的	-5456
古老的	-5457
台湾省	-5458
同样的	-5459
和天津	-5460
和文化	-5461
和浩特	-5462
在一起	-5463
在世界	-5464
在亚洲	-5465
在许多	-5466
委书记	-5467
居世界	-5468
巴尔干	-5469
帝国的	-5470
年代至	-5471
成立于	-5472
成立后	-5473
手工业	-5474
排名第	-5475
改革的	-5476
数量的	-5477
新西兰	-5478
最长的	-5479
条目的	-5480
檀香山	-5481
江苏省	-5482
汪精卫	-5483
理论的	-5484
生活的	-5485
电影的	-5486
的势力	-5487
的形成	-5488
的性质	-5489
的成员	-5490
的旅游	-5491
的时间	-5492
的游戏	-5493
的能力	-5494
目的是	-5495
科索沃	-5496
第六次	-5497
统计学	-5498
被发现	-5499
计划的	-5500
负责人	-5501
通过了	-5502
道教和	-5503
陈炯明	-5504
陕西省	-5505
隋炀帝	-5506
1900	-5507
1984	-5508
UNIX	-5509
ical	-5510
世界遗产	-5511
个人电脑	-5512
个百分点	-5513
为代表的	-5514
全国重点	-5515
古典主义	-5516
同比增长	-5517
广播电视	-5518
所使用的	-5519
数理逻辑	-5520
更进一步	-5521
档案系统	-5522
沿海地区	-5523
的人口为	-5524
科学技术	-5525
科学研究	-5526
经济总量	-5527
资产阶级	-5528
,2010	-5529
▁黑龙江省	-5530
。1912	-5531
。2005	-5532
台湾原住民族	-5533
中国共产党党员	-5534
非物质文化遗产	-5535
("	-5536
(2	-5537
(8	-5538
--	-5539
95	-5540
AS	-5541
Ch	-5542
MI	-5543
ff	-5544
▁J	-5545
▁b	-5546
、〈	-5547
「」	-5548
一代	-5549
一国	-5550
一套	-5551
一条	-5552
一篇	-5553
一面	-5554
丧失	-5555
丧生	-5556
中南	-5557
为由	-5558
主办	-5559
主演	-5560
二元	-5561
亚当	-5562
产物	-5563
京津	-5564
人格	-5565
们的	-5566
企图	-5567
伊犁	-5568
伙伴	-5569
六个	-5570
关联	-5571
写下	-5572
冲积	-5573
冶金	-5574
则由	-5575
初等	-5576
削弱	-5577
十七	-5578
华东	-5579
单曲	-5580
南头	-5581
南开	-5582
博览	-5583
即唐	-5584
口号	-5585
史前	-5586
各州	-5587
各部	-5588
吉尔	-5589
后又	-5590
吴越	-5591
命题	-5592
和谐	-5593
唯物	-5594
商代	-5595
嘉陵	-5596
因其	-5597
增设	-5598
外戚	-5599
大家	-5600
奠基	-5601
妻子	-5602
安定	-5603
宪宗	-5604
宫廷	-5605
对其	-5606
封为	-5607
居于	-5608
岁时	-5609
布局	-5610
平息	-5611
年将	-5612
建省	-5613
开采	-5614
张学	-5615
彝族	-5616
德宗	-5617
悲剧	-5618
愿意	-5619
所占	-5620
所著	-5621
推算	-5622
摄氏	-5623
教师	-5624
教徒	-5625
数为	-5626
文宗	-5627
春季	-5628
有三	-5629
样式	-5630
植被	-5631
正规	-5632
民居	-5633
水的	-5634
汉民	-5635
治所	-5636
洋务	-5637
渔业	-5638
游击	-5639
独秀	-5640
环线	-5641
现场	-5642
瑞士	-5643
用在	-5644
田汉	-5645
甲骨	-5646
电器	-5647
的国	-5648
皆为	-5649
相近	-5650
确实	-5651
种种	-5652
签证	-5653
米的	-5654
纲领	-5655
线的	-5656
终极	-5657
绘画	-5658
网球	-5659
罗廷	-5660
美德	-5661
而以	-5662
自成	-5663
航班	-5664
菜系	-5665
营业	-5666
表述	-5667
西伯	-5668
西斯	-5669
觉得	-5670
论和	-5671
达尔	-5672
途径	-5673
那样	-5674
郑和	-5675
金山	-5676
钦州	-5677
阐述	-5678
雅克	-5679
革新	-5680
飞行	-5681
饥荒	-5682
(10	-5683
-12	-5684
160	-5685
5%。	-5686
ver	-5687
▁de	-5688
▁云南	-5689
▁合肥	-5690
▁山西	-5691
▁随着	-5692
〉、〈	-5693
一书中	-5694
一定的	-5695
一连串	-5696
乌克兰	-5697
五色旗	-5698
今天的	-5699
作品的	-5700
全中国	-5701
出版社	-5702
华国锋	-5703
原来的	-5704
古罗马	-5705
各自的	-5706
和国家	-5707
和美国	-5708
国家中	-5709
在一个	-5710
在国内	-5711
在这里	-5712
大使馆	-5713
大学生	-5714
希腊语	-5715
年代起	-5716
建立后	-5717
开始于	-5718
政府与	-5719
无神论	-5720
最发达	-5721
有很多	-5722
有效的	-5723
李鸿章	-5724
条件下	-5725
来进行	-5726
次会议	-5727
特点是	-5728
生活中	-5729
的一大	-5730
的主流	-5731
的区域	-5732
的战争	-5733
的教育	-5734
的数量	-5735
的标准	-5736
的资讯	-5737
的领土	-5738
知名度	-5739
稳定的	-5740
美术馆	-5741
而得名	-5742
被广泛	-5743
被称作	-5744
西突厥	-5745
进步党	-5746
通常是	-5747
都属于	-5748
都是由	-5749
闽南语	-5750
陈独秀	-5751
鲍罗廷	-5752
.3%。	-5753
.6%,	-5754
1946	-5755
1957	-5756
1966	-5757
arch	-5758
▁俄罗斯	-5759
世界卫生	-5760
个自治县	-5761
中华文化	-5762
中国民间	-5763
五四运动	-5764
人类社会	-5765
亿立方米	-5766
儒家思想	-5767
全省共有	-5768
公共交通	-5769
列全国第	-5770
历史上的	-5771
可以分为	-5772
呼和浩特	-5773
国家主席	-5774
国民大会	-5775
国立台湾	-5776
大兴安岭	-5777
开始出现	-5778
成为世界	-5779
生产基地	-5780
的发源地	-5781
精神分析	-5782
统一战线	-5783
西伯利亚	-5784
。1952	-5785
中华民国的	-5786
中华苏维埃	-5787
证券交易所	-5788
全国人口普查	-5789
英语维基百科	-5790
第一次世界大战	-5791
中华人民共和国国旗	-5792
中国共产党中央委员会总书记	-5793
(5	-5794
):	-5795
PI	-5796
ap	-5797
ds	-5798
ip	-5799
▁明	-5800
、4	-5801
一方	-5802
一是	-5803
七月	-5804
三级	-5805
上市	-5806
不论	-5807
不需	-5808
与他	-5809
东征	-5810
东道	-5811
中子	-5812
主管	-5813
之内	-5814
乌兰	-5815
也可	-5816
交界	-5817
产地	-5818
人体	-5819
仍是	-5820
他为	-5821
他所	-5822
伊朗	-5823
会战	-5824
伯爵	-5825
似乎	-5826
但这	-5827
假日	-5828
先前	-5829
光学	-5830
八王	-5831
公分	-5832
关心	-5833
兼任	-5834
准则	-5835
出自	-5836
分工	-5837
分歧	-5838
创意	-5839
初级	-5840
制片	-5841
剧团	-5842
加特	-5843
动乱	-5844
助于	-5845
努尔	-5846
北周	-5847
北站	-5848
北约	-5849
升级	-5850
南至	-5851
卡片	-5852
卢兹	-5853
原来	-5854
双重	-5855
反攻	-5856
发扬	-5857
古迹	-5858
台中	-5859
各界	-5860
吉思	-5861
名单	-5862
吐谷	-5863
吞并	-5864
告终	-5865
唐室	-5866
围绕	-5867
均为	-5868
基隆	-5869
外省	-5870
大为	-5871
大兴	-5872
大部	-5873
天地	-5874
天子	-5875
夫人	-5876
夺取	-5877
奖励	-5878
婴儿	-5879
字体	-5880
州和	-5881
巡抚	-5882
巴士	-5883
布鲁	-5884
帝位	-5885
平地	-5886
平王	-5887
年号	-5888
并对	-5889
急性	-5890
或称	-5891
战区	-5892
执照	-5893
担心	-5894
拓展	-5895
拓扑	-5896
推举	-5897
提交	-5898
搜寻	-5899
摇滚	-5900
支柱	-5901
改名	-5902
文的	-5903
方程	-5904
无人	-5905
旨在	-5906
明星	-5907
更有	-5908
有理	-5909
李世	-5910
李党	-5911
杰出	-5912
检察	-5913
正月	-5914
母语	-5915
比伦	-5916
比率	-5917
民权	-5918
水果	-5919
永远	-5920
沫若	-5921
法军	-5922
泛指	-5923
波旁	-5924
流亡	-5925
潜艇	-5926
燃烧	-5927
燕国	-5928
现任	-5929
现状	-5930
球队	-5931
畅销	-5932
界线	-5933
疗法	-5934
白话	-5935
积累	-5936
稀少	-5937
税收	-5938
精致	-5939
约在	-5940
组件	-5941
给出	-5942
缓慢	-5943
者和	-5944
花园	-5945
蓝色	-5946
衡量	-5947
西路	-5948
解散	-5949
语系	-5950
调和	-5951
资助	-5952
跨越	-5953
较早	-5954
边缘	-5955
近期	-5956
进驻	-5957
连任	-5958
适当	-5959
透明	-5960
通道	-5961
逮捕	-5962
遗传	-5963
那时	-5964
配置	-5965
采集	-5966
里斯	-5967
间接	-5968
阿基	-5969
障碍	-5970
雷蒙	-5971
音译	-5972
飞弹	-5973
马尔	-5974
马赛	-5975
齐全	-5976
(11	-5977
,20	-5978
-18	-5979
.5%	-5980
.98	-5981
110	-5982
900	-5983
oun	-5984
ron	-5985
ure	-5986
yle	-5987
”),	-5988
。13	-5989
不确定	-5990
不需要	-5991
之前的	-5992
人口占	-5993
仍然是	-5994
兴中会	-5995
劳动力	-5996
北部和	-5997
占中国	-5998
发展到	-5999
吉思汗	-6000
吐谷浑	-6001
和苏联	-6002
四人帮	-6003
图卢兹	-6004
土家族	-6005
在全球	-6006
在广州	-6007
基本的	-6008
增加了	-6009
处理器	-6010
太子李	-6011
太阳系	-6012
威尔斯	-6013
居中国	-6014
嵌入式	-6015
工程学	-6016
已开发	-6017
带来了	-6018
年夏季	-6019
开埠后	-6020
张专辑	-6021
影响了	-6022
影响的	-6023
性研究	-6024
控制的	-6025
推出了	-6026
数学的	-6027
数据库	-6028
文明的	-6029
日正式	-6030
明显的	-6031
更大的	-6032
概念的	-6033
热力学	-6034
的事物	-6035
的人们	-6036
的同时	-6037
的建议	-6038
的态度	-6039
的改革	-6040
的汉族	-6041
的法国	-6042
相对于	-6043
石家庄	-6044
管理员	-6045
米利都	-6046
而成为	-6047
自身的	-6048
英格兰	-6049
获得的	-6050
达到了	-6051
郭沫若	-6052
都没有	-6053
银河系	-6054
高卢人	-6055
.7%,	-6056
.8%。	-6057
1937	-6058
1958	-6059
1973	-6060
4000	-6061
▁and	-6062
义务教育	-6063
共产国际	-6064
化学反应	-6065
台湾海峡	-6066
增长速度	-6067
对外贸易	-6068
居全国第	-6069
成吉思汗	-6070
文章内容	-6071
春秋时期	-6072
有限责任	-6073
欧洲国家	-6074
民国时期	-6075
研究人员	-6076
经济技术	-6077
统治时期	-6078
罗马尼亚	-6079
计划经济	-6080
,2004	-6081
▁1912	-6082
。1940	-6083
。2002	-6084
中央电视台	-6085
为中华民国	-6086
可以追溯到	-6087
民主进步党	-6088
的经济发展	-6089
计算语言学	-6090
在阿尔巴尼亚	-6091
有限责任公司	-6092
阿尔巴尼亚语	-6093
中央军事委员会	-6094
通用公共许可证	-6095
,2	-6096
3.	-6097
CN	-6098
CO	-6099
MS	-6100
NA	-6101
St	-6102
ok	-6103
”、	-6104
▁以	-6105
▁对	-6106
▁当	-6107
▁的	-6108
。<	-6109
一八	-6110
一半	-6111
万的	-6112
不达	-6113
世俗	-6114
中宗	-6115
之名	-6116
之多	-6117
也将	-6118
人心	-6119
人是	-6120
人被	-6121
介于	-6122
他将	-6123
位在	-6124
体验	-6125
保健	-6126
做为	-6127
全长	-6128
六四	-6129
六年	-6130
分散	-6131
制成	-6132
刺激	-6133
剧本	-6134
加之	-6135
动画	-6136
北碚	-6137
医师	-6138
半部	-6139
南站	-6140
历时	-6141
原属	-6142
又以	-6143
又将	-6144
反清	-6145
发掘	-6146
叙述	-6147
古拉	-6148
可供	-6149
史书	-6150
合计	-6151
启动	-6152
周刊	-6153
咨询	-6154
商贸	-6155
四方	-6156
回国	-6157
因果	-6158
园林	-6159
增幅	-6160
多处	-6161
多有	-6162
多达	-6163
大地	-6164
大帝	-6165
天后	-6166
太行	-6167
姆斯	-6168
子弟	-6169
学费	-6170
定量	-6171
家乡	-6172
对手	-6173
导弹	-6174
尔德	-6175
尚有	-6176
巫术	-6177
市长	-6178
干扰	-6179
平行	-6180
平面	-6181
并由	-6182
并称	-6183
府兵	-6184
建有	-6185
开办	-6186
归绥	-6187
很难	-6188
德华	-6189
必然	-6190
总会	-6191
情节	-6192
感染	-6193
成祖	-6194
所说	-6195
手中	-6196
扩散	-6197
抵御	-6198
拥护	-6199
指定	-6200
指责	-6201
摩天	-6202
政务	-6203
教职	-6204
文盲	-6205
新宾	-6206
族和	-6207
日时	-6208
明末	-6209
月在	-6210
有其	-6211
杂文	-6212
李登	-6213
枫叶	-6214
栖息	-6215
桃园	-6216
模仿	-6217
正当	-6218
正是	-6219
死刑	-6220
母舰	-6221
民系	-6222
氢化	-6223
氢的	-6224
水扁	-6225
永嘉	-6226
永恒	-6227
沦陷	-6228
法则	-6229
洛克	-6230
派兵	-6231
浙东	-6232
涌现	-6233
渝中	-6234
满清	-6235
演说	-6236
演进	-6237
潮州	-6238
濒临	-6239
火车	-6240
点是	-6241
燃料	-6242
特权	-6243
王公	-6244
王权	-6245
王莽	-6246
田制	-6247
画家	-6248
登上	-6249
白云	-6250
百度	-6251
的小	-6252
的美	-6253
的金	-6254
的黑	-6255
皖南	-6256
相声	-6257
码头	-6258
破解	-6259
神秘	-6260
积分	-6261
等处	-6262
算是	-6263
算起	-6264
繁殖	-6265
纪律	-6266
纵横	-6267
终止	-6268
终结	-6269
网友	-6270
翻唱	-6271
老子	-6272
而这	-6273
能在	-6274
色的	-6275
苏州	-6276
茶叶	-6277
观看	-6278
论坛	-6279
论点	-6280
讽刺	-6281
设在	-6282
诉讼	-6283
读者	-6284
贯穿	-6285
赤峰	-6286
趋于	-6287
趋向	-6288
运会	-6289
还要	-6290
追求	-6291
通往	-6292
邻国	-6293
部署	-6294
都以	-6295
里克	-6296
长途	-6297
阶梯	-6298
顺序	-6299
马拉	-6300
鼎盛	-6301
%),	-6302
,12	-6303
...	-6304
Mic	-6305
ant	-6306
enc	-6307
ill	-6308
ive	-6309
▁St	-6310
一带的	-6311
万余人	-6312
万美元	-6313
下来的	-6314
与政治	-6315
与日本	-6316
中南部	-6317
也逐渐	-6318
产阶级	-6319
传统上	-6320
使用了	-6321
倾向于	-6322
全省有	-6323
公布的	-6324
典型的	-6325
准噶尔	-6326
出生于	-6327
十二年	-6328
十六年	-6329
十四年	-6330
历史学	-6331
发生了	-6332
发达的	-6333
各地的	-6334
和地区	-6335
基础上	-6336
大跃进	-6337
大运河	-6338
奈加特	-6339
存在于	-6340
宗教或	-6341
实现了	-6342
年的一	-6343
应用于	-6344
开始了	-6345
开始的	-6346
总数的	-6347
成功的	-6348
战役中	-6349
承宣布	-6350
报告中	-6351
改国号	-6352
政策的	-6353
曾多次	-6354
最终于	-6355
未来的	-6356
李登辉	-6357
比利时	-6358
毕业生	-6359
民主化	-6360
水平的	-6361
水资源	-6362
理论上	-6363
生命的	-6364
畜牧业	-6365
的主体	-6366
的前身	-6367
的名字	-6368
的时期	-6369
的比例	-6370
的观点	-6371
的领导	-6372
省政府	-6373
科学的	-6374
程序的	-6375
第三大	-6376
等人的	-6377
等地的	-6378
等多种	-6379
索不达	-6380
纪念日	-6381
胜利后	-6382
蒙古国	-6383
西北部	-6384
西方的	-6385
诸侯国	-6386
通常会	-6387
都督府	-6388
错误的	-6389
问题上	-6390
陈水扁	-6391
高科技	-6392
1931	-6393
1985	-6394
ator	-6395
▁天津市	-6396
▁张国荣	-6397
东南沿海	-6398
中国电影	-6399
中央集权	-6400
交互作用	-6401
交通运输	-6402
典范条目	-6403
列宁主义	-6404
加拿大的	-6405
和俄罗斯	-6406
哥伦比亚	-6407
四季分明	-6408
国际社会	-6409
大部分的	-6410
工农红军	-6411
希望能够	-6412
数据结构	-6413
最高气温	-6414
的一部份	-6415
社会学的	-6416
科举制度	-6417
联邦政府	-6418
航空母舰	-6419
西部地区	-6420
语言版本	-6421
迅速发展	-6422
颁奖典礼	-6423
高等院校	-6424
opyle	-6425
▁1990	-6426
▁2014	-6427
个体经济学	-6428
临时大总统	-6429
人民委员会	-6430
工业总产值	-6431
最佳男主角	-6432
索不达米亚	-6433
中华民国总统	-6434
承宣布政使司	-6435
维基百科社群	-6436
opyleft	-6437
第二次国共内战	-6438
香港电影金像奖	-6439
中国特色社会主义	-6440
国家历史文化名城	-6441
?」	-6442
Jo	-6443
ry	-6444
▁9	-6445
▁与	-6446
。2	-6447
一线	-6448
三亚	-6449
三人	-6450
三线	-6451
下了	-6452
下午	-6453
不为	-6454
东至	-6455
两千	-6456
个乡	-6457
中外	-6458
中美	-6459
之道	-6460
乌斯	-6461
九龙	-6462
也与	-6463
二里	-6464
以往	-6465
伤亡	-6466
住宅	-6467
信任	-6468
停滞	-6469
傀儡	-6470
储备	-6471
元和	-6472
充满	-6473
光复	-6474
全区	-6475
公告	-6476
六十	-6477
其间	-6478
养殖	-6479
内迁	-6480
函式	-6481
分治	-6482
分立	-6483
刊物	-6484
刘少	-6485
制品	-6486
前线	-6487
加哥	-6488
勃艮	-6489
北齐	-6490
南迁	-6491
卢瓦	-6492
县级	-6493
又名	-6494
取决	-6495
召集	-6496
史诗	-6497
合一	-6498
向东	-6499
向南	-6500
向外	-6501
呼吁	-6502
和中	-6503
和李	-6504
和阿	-6505
外籍	-6506
多名	-6507
大厦	-6508
大英	-6509
头衔	-6510
夺回	-6511
奋斗	-6512
姓名	-6513
孔德	-6514
实数	-6515
容量	-6516
小片	-6517
少年	-6518
尺寸	-6519
层级	-6520
居多	-6521
山县	-6522
布斯	-6523
年唐	-6524
庐州	-6525
开垦	-6526
弗洛	-6527
归属	-6528
当作	-6529
很早	-6530
战的	-6531
手法	-6532
扶植	-6533
承办	-6534
拓跋	-6535
指南	-6536
支线	-6537
收回	-6538
放映	-6539
数位	-6540
数百	-6541
断层	-6542
新城	-6543
旗杆	-6544
既有	-6545
日渐	-6546
时有	-6547
是个	-6548
晋朝	-6549
暂时	-6550
曾是	-6551
最具	-6552
最小	-6553
最快	-6554
望远	-6555
本来	-6556
本科	-6557
本草	-6558
权限	-6559
极高	-6560
林业	-6561
校园	-6562
校长	-6563
每天	-6564
氏族	-6565
民政	-6566
民航	-6567
水路	-6568
江浙	-6569
沙皇	-6570
泉州	-6571
消耗	-6572
演讲	-6573
照片	-6574
物品	-6575
琉球	-6576
生于	-6577
画面	-6578
病逝	-6579
的四	-6580
皮尔	-6581
目录	-6582
短期	-6583
石窟	-6584
硕士	-6585
神圣	-6586
离岸	-6587
稍后	-6588
空中	-6589
米尔	-6590
繁多	-6591
繁忙	-6592
细亚	-6593
经国	-6594
结成	-6595
者是	-6596
至元	-6597
舰队	-6598
艺人	-6599
草案	-6600
萨尔	-6601
蒙藏	-6602
装箱	-6603
豫州	-6604
贫困	-6605
赞成	-6606
起初	-6607
起点	-6608
辩论	-6609
边防	-6610
辽河	-6611
这两	-6612
通货	-6613
那个	-6614
邺城	-6615
都要	-6616
重组	-6617
野心	-6618
铁矿	-6619
阻挡	-6620
靠近	-6621
面是	-6622
韦伯	-6623
领事	-6624
驻地	-6625
驾崩	-6626
鲁国	-6627
鸟类	-6628
,17	-6629
.06	-6630
10%	-6631
112	-6632
80%	-6633
ern	-6634
ert	-6635
man	-6636
ros	-6637
val	-6638
yst	-6639
”)。	-6640
▁12	-6641
▁作为	-6642
▁明朝	-6643
▁随著	-6644
「-{	-6645
一直是	-6646
与香港	-6647
中全会	-6648
中后期	-6649
中部的	-6650
为主体	-6651
为什么	-6652
之后在	-6653
二进制	-6654
但也有	-6655
修正案	-6656
候选人	-6657
公司的	-6658
共同体	-6659
共和党	-6660
关系的	-6661
再加上	-6662
决定将	-6663
刘少奇	-6664
创造了	-6665
加入了	-6666
勃艮第	-6667
千亿元	-6668
印度洋	-6669
印度的	-6670
又称为	-6671
另外在	-6672
可以是	-6673
可能性	-6674
和国际	-6675
和经济	-6676
在某些	-6677
在社会	-6678
地质学	-6679
增加到	-6680
女歌手	-6681
存在著	-6682
学术界	-6683
它们的	-6684
客运量	-6685
已经有	-6686
巴格达	-6687
年代末	-6688
年代的	-6689
式建筑	-6690
德国的	-6691
总量为	-6692
托马斯	-6693
执政党	-6694
改变了	-6695
时间内	-6696
是一名	-6697
是唯一	-6698
是欧洲	-6699
曾一度	-6700
最好的	-6701
有一定	-6702
有中国	-6703
有相当	-6704
望远镜	-6705
机器人	-6706
标志着	-6707
植物学	-6708
法律的	-6709
活动的	-6710
源自于	-6711
王国的	-6712
甚至是	-6713
生理学	-6714
甲骨文	-6715
的一半	-6716
的作用	-6717
的变化	-6718
的工业	-6719
的意思	-6720
的时代	-6721
的铁路	-6722
研究院	-6723
第一家	-6724
第一座	-6725
第三位	-6726
纪念馆	-6727
色金属	-6728
芝加哥	-6729
被列入	-6730
西元前	-6731
设计师	-6732
诺曼底	-6733
转变为	-6734
这就是	-6735
采用了	-6736
重庆府	-6737
阿基坦	-6738
集装箱	-6739
青年团	-6740
音乐家	-6741
鲁迅的	-6742
1100	-6743
1895	-6744
1943	-6745
1969	-6746
1988	-6747
ompu	-6748
▁内蒙古	-6749
▁纽西兰	-6750
一般认为	-6751
严重急性	-6752
中原地区	-6753
交流协会	-6754
人口增长	-6755
代表性的	-6756
位于中国	-6757
卡佩王朝	-6758
发生冲突	-6759
发达国家	-6760
可以使用	-6761
四川盆地	-6762
国共合作	-6763
国家公园	-6764
国际贸易	-6765
土地改革	-6766
在公元前	-6767
广播公司	-6768
所提出的	-6769
最低气温	-6770
特别是在	-6771
用户界面	-6772
电子信息	-6773
的第一个	-6774
直隶总督	-6775
科学领域	-6776
经济改革	-6777
美国经济	-6778
自然环境	-6779
自由文件	-6780
路易十四	-6781
通货膨胀	-6782
,2012	-6783
,2014	-6784
3,000	-6785
ystem	-6786
▁Soci	-6787
。1946	-6788
主要集中在	-6789
国际电影节	-6790
广播电视台	-6791
开放源代码	-6792
新古典主义	-6793
的国家之一	-6794
的研究对象	-6795
足球俱乐部	-6796
codice	-6797
▁赫拉克利特	-6798
严重急性呼吸	-6799
加利福尼亚州	-6800
(9	-6801
2.	-6802
CP	-6803
Re	-6804
ak	-6805
hi	-6806
hn	-6807
io	-6808
ud	-6809
‰,	-6810
▁5	-6811
▁为	-6812
▁孙	-6813
▁有	-6814
▁除	-6815
。。	-6816
》)	-6817
一件	-6818
一天	-6819
一生	-6820
七十	-6821
万辆	-6822
三军	-6823
上是	-6824
不一	-6825
不含	-6826
不均	-6827
不管	-6828
不要	-6829
专用	-6830
世居	-6831
世族	-6832
两条	-6833
中西	-6834
为期	-6835
为省	-6836
主政	-6837
之久	-6838
之说	-6839
予以	-6840
二级	-6841
五千	-6842
五行	-6843
人为	-6844
人力	-6845
人称	-6846
人群	-6847
仍旧	-6848
代之	-6849
仰韶	-6850
份子	-6851
伐克	-6852
优良	-6853
位素	-6854
便会	-6855
促成	-6856
保安	-6857
保育	-6858
元首	-6859
克洛	-6860
兑换	-6861
全盛	-6862
公社	-6863
军在	-6864
分享	-6865
分封	-6866
分开	-6867
前三	-6868
加索	-6869
务工	-6870
勋章	-6871
北海	-6872
北至	-6873
医科	-6874
协同	-6875
卫队	-6876
危险	-6877
卷入	-6878
压制	-6879
压迫	-6880
厘米	-6881
县和	-6882
参谋	-6883
台澎	-6884
号为	-6885
各族	-6886
合院	-6887
名录	-6888
启超	-6889
周转	-6890
团队	-6891
园区	-6892
围攻	-6893
国庆	-6894
图片	-6895
在唐	-6896
在高	-6897
垂直	-6898
城址	-6899
基准	-6900
塔尼	-6901
增进	-6902
复苏	-6903
夏天	-6904
多家	-6905
多少	-6906
多雨	-6907
天山	-6908
失灵	-6909
威尔	-6910
安南	-6911
安阳	-6912
富裕	-6913
寒冷	-6914
寓言	-6915
封闭	-6916
就在	-6917
山水	-6918
州长	-6919
巴蜀	-6920
希尔	-6921
常年	-6922
幽州	-6923
广为	-6924
庆祝	-6925
开拓	-6926
归降	-6927
影像	-6928
德王	-6929
德里	-6930
思潮	-6931
性格	-6932
性能	-6933
意图	-6934
感知	-6935
或许	-6936
扩建	-6937
技能	-6938
抵制	-6939
招生	-6940
指的	-6941
指称	-6942
振兴	-6943
掌管	-6944
推荐	-6945
操纵	-6946
攻克	-6947
政体	-6948
文人	-6949
方的	-6950
日耳	-6951
日记	-6952
早于	-6953
明郑	-6954
是将	-6955
曹魏	-6956
曾与	-6957
月后	-6958
样本	-6959
格勒	-6960
桌面	-6961
欣赏	-6962
歌剧	-6963
步骤	-6964
武周	-6965
武德	-6966
水运	-6967
江东	-6968
沿江	-6969
沿线	-6970
注入	-6971
洛林	-6972
浦江	-6973
浪漫	-6974
海湾	-6975
海的	-6976
淮西	-6977
清原	-6978
焦点	-6979
燕京	-6980
特产	-6981
现已	-6982
瓷器	-6983
电气	-6984
界限	-6985
留在	-6986
症状	-6987
的黄	-6988
皇太	-6989
监管	-6990
盛产	-6991
相邻	-6992
禁令	-6993
秦岭	-6994
突然	-6995
等同	-6996
简化	-6997
管制	-6998
素有	-6999
索瓦	-7000
紧急	-7001
累积	-7002
级别	-7003
线等	-7004
绘制	-7005
统帅	-7006
统辖	-7007
绿色	-7008
置于	-7009
老年	-7010
而自	-7011
职能	-7012
聚会	-7013
自古	-7014
英九	-7015
菜肴	-7016
著称	-7017
蒸发	-7018
蕴藏	-7019
诊断	-7020
诸王	-7021
读书	-7022
负担	-7023
赛车	-7024
赫尔	-7025
起事	-7026
趁机	-7027
转而	-7028
较强	-7029
迄今	-7030
还会	-7031
这时	-7032
逃亡	-7033
通化	-7034
通婚	-7035
遗嘱	-7036
那里	-7037
里木	-7038
重于	-7039
重镇	-7040
金钱	-7041
钓鱼	-7042
问世	-7043
防线	-7044
陆皓	-7045
隔离	-7046
难题	-7047
雨季	-7048
零售	-7049
非法	-7050
风光	-7051
马祖	-7052
驻军	-7053
麻省	-7054
(14	-7055
,16	-7056
.48	-7057
.82	-7058
0.7	-7059
1.6	-7060
130	-7061
2.3	-7062
2.7	-7063
211	-7064
250	-7065
4%,	-7066
70%	-7067
9%。	-7068
9.8	-7069
Web	-7070
ger	-7071
ich	-7072
▁20	-7073
▁一个	-7074
▁截止	-7075
▁电影	-7076
▁福建	-7077
上海话	-7078
与发展	-7079
中国之	-7080
也经常	-7081
于同年	-7082
于香港	-7083
人数为	-7084
人类学	-7085
价值观	-7086
作者的	-7087
克利斯	-7088
全国的	-7089
内核的	-7090
内部的	-7091
制度的	-7092
办公室	-7093
化学家	-7094
北回归	-7095
南京市	-7096
博览会	-7097
县划归	-7098
发源于	-7099
发生在	-7100
取决于	-7101
可以用	-7102
可能的	-7103
同一个	-7104
同位素	-7105
唐高宗	-7106
嘉陵江	-7107
因为它	-7108
地区和	-7109
地球的	-7110
多样性	-7111
多民族	-7112
大专辑	-7113
大多是	-7114
大学和	-7115
对立的	-7116
居住在	-7117
山西省	-7118
工作的	-7119
平原和	-7120
年前的	-7121
年建成	-7122
年设立	-7123
并成为	-7124
并认为	-7125
建立在	-7126
弗洛伊	-7127
归类为	-7128
思想的	-7129
恒星的	-7130
批评者	-7131
撰写的	-7132
新疆的	-7133
方法来	-7134
日耳曼	-7135
是否有	-7136
是当时	-7137
普遍的	-7138
有名的	-7139
有大量	-7140
札萨克	-7141
李世民	-7142
来源于	-7143
梁启超	-7144
法学院	-7145
洛伐克	-7146
流行于	-7147
海内外	-7148
涂尔干	-7149
消费者	-7150
演变成	-7151
特有的	-7152
的亚洲	-7153
的儿子	-7154
的北京	-7155
的建筑	-7156
的特点	-7157
的相关	-7158
的规定	-7159
的需求	-7160
相应的	-7161
看作是	-7162
研究和	-7163
确立了	-7164
等国家	-7165
等著名	-7166
篇文章	-7167
至今仍	-7168
蒋经国	-7169
这两种	-7170
进化论	-7171
适用于	-7172
造成了	-7173
铁路局	-7174
隋文帝	-7175
青铜器	-7176
非正式	-7177
面积约	-7178
马英九	-7179
黄河中	-7180
黑格尔	-7181
.1%。	-7182
.9%。	-7183
1939	-7184
1975	-7185
▁山东省	-7186
▁柏拉图	-7187
▁浙江省	-7188
▁近年来	-7189
不同的是	-7190
世界贸易	-7191
东部沿海	-7192
中国文化	-7193
中央银行	-7194
中心城区	-7195
中心城市	-7196
克利斯登	-7197
八王之乱	-7198
十九世纪	-7199
印度支那	-7200
可以用来	-7201
国有企业	-7202
国民经济	-7203
国际组织	-7204
图书馆学	-7205
城市发展	-7206
增长率为	-7207
外交政策	-7208
外来人口	-7209
完全竞争	-7210
官方语言	-7211
岁及以上	-7212
工业革命	-7213
弗朗索瓦	-7214
形式逻辑	-7215
户籍人口	-7216
日治时期	-7217
最为著名	-7218
最主要的	-7219
材料科学	-7220
法国政府	-7221
流域面积	-7222
海峡两岸	-7223
澎湖群岛	-7224
现代医学	-7225
电子游戏	-7226
知识分子	-7227
示威活动	-7228
科技大学	-7229
第一产业	-7230
统计数字	-7231
统计数据	-7232
编辑用户	-7233
腓力二世	-7234
自然语言	-7235
藏传佛教	-7236
衍生作品	-7237
语音合成	-7238
饮食文化	-7239
高等学校	-7240
▁2000	-7241
▁2013	-7242
▁2018	-7243
▁维基百科	-7244
。1928	-7245
。1937	-7246
。1988	-7247
。1991	-7248
。1997	-7249
。1999	-7250
中华音乐人	-7251
人文地理学	-7252
强人工智能	-7253
最高领导人	-7254
的一个分支	-7255
许多不同的	-7256
越来越多的	-7257
轴心国集团	-7258
青天白日旗	-7259
ograph	-7260
▁中国共产党	-7261
春秋战国时期	-7262
高新技术产业	-7263
麻省理工学院	-7264
亚热带季风气候	-7265
全国人大常委会	-7266
第一产业增加值	-7267
第二产业增加值	-7268
自由贸易试验区	-7269
自由文件授权条款	-7270
中华音乐人交流协会	-7271
届全国人民代表大会	-7272
全国重点文物保护单位	-7273
)(	-7274
4,	-7275
7,	-7276
AT	-7277
Al	-7278
De	-7279
IF	-7280
PS	-7281
ca	-7282
ck	-7283
ib	-7284
pl	-7285
ss	-7286
te	-7287
”“	-7288
▁4	-7289
▁a	-7290
▁|	-7291
▁他	-7292
、6	-7293
、8	-7294
一书	-7295
一时	-7296
一段	-7297
一群	-7298
一说	-7299
万亩	-7300
三峡	-7301
上任	-7302
上面	-7303
下属	-7304
不合	-7305
不多	-7306
不知	-7307
世代	-7308
东周	-7309
两江	-7310
两税	-7311
丹麦	-7312
主力	-7313
之分	-7314
也能	-7315
交汇	-7316
产区	-7317
京兆	-7318
人等	-7319
他与	-7320
他也	-7321
仪器	-7322
会盟	-7323
但却	-7324
低温	-7325
体操	-7326
便于	-7327
俘虏	-7328
做的	-7329
先行	-7330
全岛	-7331
八国	-7332
六大	-7333
关税	-7334
内政	-7335
军的	-7336
几种	-7337
凡尔	-7338
出于	-7339
刑事	-7340
则被	-7341
创刊	-7342
利于	-7343
别姬	-7344
别称	-7345
到来	-7346
制和	-7347
功臣	-7348
北市	-7349
北朝	-7350
区内	-7351
南区	-7352
南宁	-7353
即将	-7354
原创	-7355
又是	-7356
反共	-7357
变为	-7358
变革	-7359
可用	-7360
台后	-7361
台州	-7362
号召	-7363
各斯	-7364
各样	-7365
合众	-7366
合同	-7367
同化	-7368
吐鲁	-7369
员工	-7370
和亲	-7371
哈赤	-7372
商圈	-7373
器材	-7374
因应	-7375
在家	-7376
地名	-7377
地拉	-7378
场地	-7379
城乡	-7380
基辅	-7381
境外	-7382
复辟	-7383
多以	-7384
多条	-7385
大鼓	-7386
天国	-7387
契约	-7388
婚姻	-7389
存储	-7390
存取	-7391
孙权	-7392
学士	-7393
学界	-7394
学等	-7395
宁安	-7396
安西	-7397
审理	-7398
宣扬	-7399
宽松	-7400
对峙	-7401
少白	-7402
尔摩	-7403
就像	-7404
就被	-7405
川东	-7406
工会	-7407
市政	-7408
布尔	-7409
布署	-7410
布莱	-7411
平安	-7412
年制	-7413
年表	-7414
并被	-7415
幸福	-7416
庄公	-7417
应对	-7418
底层	-7419
延长	-7420
开国	-7421
张家	-7422
影展	-7423
快乐	-7424
怎样	-7425
总局	-7426
成渝	-7427
所得	-7428
打算	-7429
摇篮	-7430
改以	-7431
攻灭	-7432
政事	-7433
故宫	-7434
故意	-7435
斯宾	-7436
新增	-7437
新建	-7438
方国	-7439
日在	-7440
日趋	-7441
昭宗	-7442
晋国	-7443
晚清	-7444
曾有	-7445
曾被	-7446
朝向	-7447
木儿	-7448
未有	-7449
松花	-7450
标记	-7451
核算	-7452
次数	-7453
歇尔	-7454
毗邻	-7455
水量	-7456
汇编	-7457
汉口	-7458
河东	-7459
油田	-7460
法典	-7461
法家	-7462
法规	-7463
泰山	-7464
流经	-7465
浪潮	-7466
浮动	-7467
海禁	-7468
消除	-7469
清华	-7470
湖州	-7471
湿地	-7472
演艺	-7473
漠南	-7474
潜力	-7475
灌溉	-7476
率兵	-7477
率部	-7478
王守	-7479
电信	-7480
电话	-7481
电车	-7482
男女	-7483
的亲	-7484
的歌	-7485
的西	-7486
相传	-7487
知觉	-7488
矿业	-7489
禅让	-7490
秘书	-7491
答案	-7492
纤维	-7493
约前	-7494
细菌	-7495
维尔	-7496
网上	-7497
而已	-7498
聆听	-7499
股票	-7500
至善	-7501
致使	-7502
航海	-7503
船只	-7504
节庆	-7505
获奖	-7506
获胜	-7507
蚌埠	-7508
蛇口	-7509
补助	-7510
西至	-7511
设定	-7512
诠释	-7513
语和	-7514
说过	-7515
谴责	-7516
负面	-7517
贫穷	-7518
赋税	-7519
跟随	-7520
轮替	-7521
轻易	-7522
较快	-7523
进士	-7524
遇到	-7525
道的	-7526
遗体	-7527
邮件	-7528
邮政	-7529
都被	-7530
重复	-7531
重心	-7532
金华	-7533
键盘	-7534
长约	-7535
门类	-7536
陪都	-7537
霸王	-7538
顺利	-7539
风味	-7540
首府	-7541
驾驶	-7542
魏晋	-7543
黄山	-7544
黑山	-7545
()。	-7546
103	-7547
118	-7548
360	-7549
907	-7550
And	-7551
Com	-7552
SCO	-7553
ate	-7554
ins	-7555
}-,	-7556
▁17	-7557
▁NT	-7558
▁Un	-7559
▁今日	-7560
▁以下	-7561
▁安徽	-7562
▁宗教	-7563
▁广东	-7564
▁河南	-7565
▁而在	-7566
▁自从	-7567
》),	-7568
不变的	-7569
不得不	-7570
与文化	-7571
与社会	-7572
世纪至	-7573
两者的	-7574
中国与	-7575
为核心	-7576
举办了	-7577
之一是	-7578
也纷纷	-7579
也能够	-7580
了他的	-7581
亚细亚	-7582
人物有	-7583
仍然在	-7584
他们在	-7585
代表了	-7586
价值的	-7587
但这些	-7588
体育馆	-7589
促进了	-7590
儒学的	-7591
入学率	-7592
全球化	-7593
出口国	-7594
函式库	-7595
制片厂	-7596
副总统	-7597
十六国	-7598
占世界	-7599
原子核	-7600
原有的	-7601
参加了	-7602
发展了	-7603
发表了	-7604
变化的	-7605
召开的	-7606
吐鲁番	-7607
君主制	-7608
周转量	-7609
和道教	-7610
国歌法	-7611
国防部	-7612
地下水	-7613
地拉那	-7614
地球上	-7615
均田制	-7616
大元帅	-7617
太阳能	-7618
失败后	-7619
对象的	-7620
巴比伦	-7621
年代后	-7622
年首次	-7623
并不能	-7624
并开始	-7625
建立起	-7626
开始有	-7627
当选为	-7628
往往会	-7629
性质的	-7630
扩展到	-7631
政权的	-7632
文学的	-7633
昆铁路	-7634
明成祖	-7635
是天津	-7636
晋武帝	-7637
曼帝国	-7638
最终在	-7639
李克强	-7640
极大的	-7641
正教会	-7642
比如说	-7643
法西斯	-7644
浙江的	-7645
灭亡后	-7646
王菲的	-7647
现象的	-7648
甚至在	-7649
的人数	-7650
的发音	-7651
的商业	-7652
的存在	-7653
的工具	-7654
的平均	-7655
的歌曲	-7656
的生活	-7657
的用户	-7658
的维基	-7659
的著名	-7660
的解释	-7661
的贡献	-7662
目标是	-7663
相较于	-7664
知识的	-7665
社会上	-7666
科学院	-7667
称其为	-7668
笛卡尔	-7669
等因素	-7670
等领域	-7671
管理区	-7672
系统中	-7673
纪念币	-7674
经济圈	-7675
罗伯特	-7676
考虑到	-7677
苏联的	-7678
视为是	-7679
辩证法	-7680
还没有	-7681
这包括	-7682
进入了	-7683
选举人	-7684
逻各斯	-7685
部队在	-7686
阿尔及	-7687
阿拉斯	-7688
附近的	-7689
陆皓东	-7690
陆续续	-7691
陈少白	-7692
香港和	-7693
1944	-7694
1947	-7695
1968	-7696
▁云南省	-7697
▁孙中山	-7698
世界第二	-7699
也有许多	-7700
人民日报	-7701
他们认为	-7702
但是由于	-7703
克里米亚	-7704
六四事件	-7705
努尔哈赤	-7706
北回归线	-7707
升旗仪式	-7708
友好城市	-7709
台澎金马	-7710
存在主义	-7711
工业基地	-7712
师范学院	-7713
年增长率	-7714
年第五次	-7715
战争期间	-7716
支柱产业	-7717
文学作品	-7718
是第一个	-7719
最后一个	-7720
淡江大学	-7721
物理学的	-7722
理工大学	-7723
的一系列	-7724
的人口无	-7725
社会经济	-7726
祖先崇拜	-7727
经济合作	-7728
行政机关	-7729
观点认为	-7730
规模以上	-7731
这一阶段	-7732
这些问题	-7733
逐渐成为	-7734
金融机构	-7735
陆地面积	-7736
陆陆续续	-7737
霸王别姬	-7738
,2015	-7739
ology	-7740
orval	-7741
▁1991	-7742
▁2004	-7743
▁2006	-7744
。1919	-7745
。1930	-7746
。1948	-7747
。1998	-7748
。2001	-7749
。2018	-7750
不平等条约	-7751
印度尼西亚	-7752
已开发国家	-7753
常住人口中	-7754
广义相对论	-7755
很大程度上	-7756
总体经济学	-7757
改革试验区	-7758
苏联解体后	-7759
世界卫生组织	-7760
中华民国国军	-7761
中国民间宗教	-7762
美索不达米亚	-7763
股份有限公司	-7764
omputer	-7765
orvalds	-7766
中共中央总书记	-7767
中国共产党领导	-7768
经济技术开发区	-7769
自由软体基金会	-7770
马克思列宁主义	-7771
Copyleft	-7772
Internet	-7773
中华苏维埃共和国	-7774
全国人民代表大会	-7775
▁中华人民共和国成立后	-7776
"(	-7777
(<	-7778
:《	-7779
>^	-7780
Ar	-7781
LA	-7782
Pr	-7783
ex	-7784
ge	-7785
iz	-7786
yc	-7787
ys	-7788
▁-	-7789
▁0	-7790
▁n	-7791
▁w	-7792
▁氢	-7793
一二	-7794
一律	-7795
一日	-7796
万历	-7797
万年	-7798
三代	-7799
三千	-7800
三月	-7801
三条	-7802
上层	-7803
上映	-7804
上诉	-7805
下滑	-7806
东临	-7807
东路	-7808
丞相	-7809
中小	-7810
中断	-7811
为例	-7812
之国	-7813
之始	-7814
之祸	-7815
九个	-7816
九江	-7817
乡村	-7818
乡镇	-7819
书面	-7820
二是	-7821
云贵	-7822
五月	-7823
井冈	-7824
交往	-7825
亨村	-7826
人造	-7827
他对	-7828
他说	-7829
代理	-7830
伊本	-7831
优化	-7832
优越	-7833
会的	-7834
传到	-7835
传媒	-7836
伽利	-7837
但不	-7838
低山	-7839
住在	-7840
住房	-7841
作的	-7842
你们	-7843
侨民	-7844
侵蚀	-7845
保机	-7846
倚赖	-7847
倩女	-7848
倾斜	-7849
储蓄	-7850
充足	-7851
克罗	-7852
克莱	-7853
公会	-7854
六部	-7855
关闭	-7856
兵变	-7857
内在	-7858
内存	-7859
内蒙	-7860
冰川	-7861
击退	-7862
刑罚	-7863
前秦	-7864
加拉	-7865
北韩	-7866
匿名	-7867
千岛	-7868
半球	-7869
华裔	-7870
南亚	-7871
南岸	-7872
南洋	-7873
厚的	-7874
变更	-7875
口味	-7876
古都	-7877
合约	-7878
同性	-7879
同步	-7880
同治	-7881
向北	-7882
否则	-7883
否定	-7884
周公	-7885
周遭	-7886
和其	-7887
咖啡	-7888
哥哥	-7889
哥特	-7890
唯心	-7891
商店	-7892
商标	-7893
四十	-7894
四小	-7895
圣地	-7896
在各	-7897
坐落	-7898
坦克	-7899
型的	-7900
城的	-7901
基层	-7902
塞罗	-7903
壮语	-7904
外出	-7905
外商	-7906
外贸	-7907
多部	-7908
大专	-7909
大中	-7910
大卫	-7911
大成	-7912
大清	-7913
大禹	-7914
失利	-7915
奥尔	-7916
姐妹	-7917
字的	-7918
完颜	-7919
官吏	-7920
实业	-7921
室内	-7922
对日	-7923
对称	-7924
寺庙	-7925
封地	-7926
将在	-7927
尔人	-7928
尔夫	-7929
属地	-7930
山峰	-7931
峡谷	-7932
州为	-7933
巡回	-7934
工商	-7935
已于	-7936
市镇	-7937
布什	-7938
布依	-7939
帝王	-7940
带领	-7941
平坦	-7942
平埔	-7943
平阳	-7944
年又	-7945
年有	-7946
幽魂	-7947
广府	-7948
废止	-7949
开工	-7950
开幕	-7951
归顺	-7952
当天	-7953
录制	-7954
录音	-7955
影评	-7956
得出	-7957
忽略	-7958
总共	-7959
总是	-7960
患者	-7961
惠州	-7962
感情	-7963
慢慢	-7964
成效	-7965
或多	-7966
战术	-7967
所杀	-7968
所灭	-7969
所需	-7970
才会	-7971
打造	-7972
扬州	-7973
技艺	-7974
护法	-7975
拜占	-7976
掀起	-7977
掌权	-7978
排他	-7979
接任	-7980
接纳	-7981
推崇	-7982
政区	-7983
效力	-7984
教导	-7985
文坛	-7986
断行	-7987
斯克	-7988
斯基	-7989
新华	-7990
新安	-7991
新式	-7992
新竹	-7993
方略	-7994
无为	-7995
无所	-7996
日文	-7997
早年	-7998
明文	-7999
星云	-8000
是其	-8001
月球	-8002
有两	-8003
有线	-8004
服从	-8005
朔方	-8006
木刻	-8007
未经	-8008
朱邦	-8009
李德	-8010
束缚	-8011
来台	-8012
来往	-8013
极少	-8014
构想	-8015
格斯	-8016
楚王	-8017
正传	-8018
毁灭	-8019
每周	-8020
民初	-8021
沉积	-8022
法令	-8023
法庭	-8024
流入	-8025
浪费	-8026
消极	-8027
深化	-8028
温暖	-8029
游泳	-8030
潮汕	-8031
爱好	-8032
父子	-8033
片区	-8034
版画	-8035
珊瑚	-8036
珍稀	-8037
珠海	-8038
用到	-8039
用语	-8040
病死	-8041
白马	-8042
的常	-8043
皇权	-8044
监视	-8045
盟友	-8046
直选	-8047
看见	-8048
石化	-8049
秋季	-8050
称号	-8051
突击	-8052
等于	-8053
类别	-8054
纳德	-8055
纳西	-8056
纵贯	-8057
结为	-8058
给定	-8059
统领	-8060
老龄	-8061
而下	-8062
而其	-8063
肉类	-8064
肥胖	-8065
芜湖	-8066
苯教	-8067
英宗	-8068
药用	-8069
萌芽	-8070
萨满	-8071
落实	-8072
蒙政	-8073
融资	-8074
西山	-8075
西征	-8076
见证	-8077
讨袁	-8078
论的	-8079
设于	-8080
诗词	-8081
诛杀	-8082
该国	-8083
语义	-8084
说服	-8085
诸子	-8086
调度	-8087
调节	-8088
贪污	-8089
贫富	-8090
越王	-8091
身上	-8092
辞去	-8093
过境	-8094
远征	-8095
连带	-8096
连年	-8097
迫害	-8098
迷信	-8099
退位	-8100
适用	-8101
通信	-8102
造就	-8103
造船	-8104
道具	-8105
邦交	-8106
邻近	-8107
都能	-8108
重申	-8109
金沙	-8110
镇守	-8111
长寿	-8112
长征	-8113
门户	-8114
阜阳	-8115
陶瓷	-8116
雨量	-8117
青春	-8118
韶关	-8119
频率	-8120
风情	-8121
高昌	-8122
鱼类	-8123
黄土	-8124
黄埔	-8125
%)。	-8126
(15	-8127
,13	-8128
.28	-8129
1.7	-8130
105	-8131
2.4	-8132
3.5	-8133
FSF	-8134
POS	-8135
ach	-8136
ect	-8137
est	-8138
ler	-8139
ley	-8140
ort	-8141
▁13	-8142
▁Ch	-8143
▁on	-8144
▁一般	-8145
▁世界	-8146
▁主要	-8147
▁唐代	-8148
▁早在	-8149
▁有些	-8150
▁游戏	-8151
▁湖北	-8152
▁现辖	-8153
▁贵州	-8154
一个人	-8155
下西洋	-8156
与台湾	-8157
世纪时	-8158
世纪起	-8159
东海王	-8160
严格的	-8161
为研究	-8162
之后又	-8163
也包括	-8164
也十分	-8165
二里头	-8166
于北京	-8167
人民的	-8168
以及在	-8169
出生率	-8170
分布着	-8171
则可以	-8172
创作的	-8173
创办了	-8174
创建了	-8175
动力学	-8176
化学键	-8177
北方的	-8178
南方的	-8179
取代了	-8180
句话说	-8181
合作的	-8182
合并为	-8183
和艺术	-8184
和英国	-8185
团体有	-8186
在不同	-8187
在德国	-8188
在过去	-8189
在这次	-8190
坎宁安	-8191
基因组	-8192
境内有	-8193
大陆性	-8194
学研究	-8195
客运站	-8196
对台湾	-8197
就可以	-8198
山机场	-8199
已经被	-8200
帖木儿	-8201
平均每	-8202
年世界	-8203
年之后	-8204
年全省	-8205
年年底	-8206
年法国	-8207
年美国	-8208
年轻人	-8209
幼儿园	-8210
应用在	-8211
引入了	-8212
形文字	-8213
微内核	-8214
总公司	-8215
总收入	-8216
成功地	-8217
所在的	-8218
所需要	-8219
抚顺城	-8220
提供的	-8221
政府于	-8222
政治和	-8223
教科文	-8224
教育和	-8225
文化与	-8226
文化圈	-8227
文学奖	-8228
新北市	-8229
无条件	-8230
日本人	-8231
是人类	-8232
是位于	-8233
是全球	-8234
是目前	-8235
最大化	-8236
有不少	-8237
有争议	-8238
有密切	-8239
有时会	-8240
有时候	-8241
朱邦复	-8242
李克用	-8243
李自成	-8244
来作为	-8245
来表示	-8246
构成了	-8247
核心区	-8248
比重为	-8249
淡水湖	-8250
清朝的	-8251
理想国	-8252
瓦卢瓦	-8253
生产力	-8254
生产者	-8255
的一门	-8256
的两个	-8257
的交流	-8258
的元素	-8259
的先驱	-8260
的后裔	-8261
的河流	-8262
的版本	-8263
的艺术	-8264
的讨论	-8265
相对应	-8266
看起来	-8267
竞争力	-8268
第一名	-8269
第四位	-8270
签署了	-8271
类型的	-8272
级航道	-8273
经历了	-8274
统治的	-8275
翠亨村	-8276
翻译为	-8277
而一些	-8278
而产生	-8279
而成的	-8280
联合会	-8281
至今日	-8282
葡萄酒	-8283
足球队	-8284
造成的	-8285
郑士良	-8286
郑庄公	-8287
铁路和	-8288
阔叶林	-8289
阳离子	-8290
阿保机	-8291
集团军	-8292
革命之	-8293
高加索	-8294
高雄市	-8295
.0%。	-8296
.3%,	-8297
1860	-8298
1921	-8299
1935	-8300
1983	-8301
7000	-8302
Fran	-8303
ense	-8304
wiki	-8305
▁Hat	-8306
▁for	-8307
▁大多数	-8308
▁抚顺市	-8309
▁计算机	-8310
▁高德纳	-8311
三国时期	-8312
三线建设	-8313
世纪中期	-8314
东汉末年	-8315
严重破坏	-8316
中世纪的	-8317
也被称为	-8318
人类活动	-8319
倩女幽魂	-8320
几乎所有	-8321
原因在于	-8322
另外一个	-8323
可以通过	-8324
唱片公司	-8325
地理资讯	-8326
多个国家	-8327
太平天国	-8328
孙中山的	-8329
宗教自由	-8330
实证主义	-8331
已经开始	-8332
年成立的	-8333
张国荣的	-8334
得到恢复	-8335
我们可以	-8336
所产生的	-8337
投入使用	-8338
抚顺地区	-8339
换句话说	-8340
文化中心	-8341
旅游景区	-8342
春秋战国	-8343
有色金属	-8344
民主主义	-8345
没有提供	-8346
清华大学	-8347
电脑科学	-8348
电视频道	-8349
的方式来	-8350
空气质量	-8351
经济增长	-8352
经济成长	-8353
综合配套	-8354
蒙古帝国	-8355
蓬勃发展	-8356
藩镇割据	-8357
西方哲学	-8358
超级大国	-8359
越来越多	-8360
这段时期	-8361
选举产生	-8362
通商口岸	-8363
铁路干线	-8364
长江流域	-8365
领导集体	-8366
龙山文化	-8367
,2000	-8368
,2009	-8369
,2016	-8370
-2008	-8371
1,000	-8372
POSIX	-8373
▁1911	-8374
▁1945	-8375
▁1995	-8376
▁2009	-8377
▁Wiki	-8378
▁操作系统	-8379
。1920	-8380
。1960	-8381
东北地区的	-8382
其他宗教的	-8383
南北朝时期	-8384
同盟国部队	-8385
安全理事会	-8386
年人口普查	-8387
成为世界上	-8388
毛泽东思想	-8389
的地区之一	-8390
社会学理论	-8391
英国和法国	-8392
认知心理学	-8393
面积最大的	-8394
10,000	-8395
cience	-8396
世界贸易组织	-8397
人民广播电台	-8398
和中国共产党	-8399
图形用户界面	-8400
年平均增长率	-8401
等处行中书省	-8402
联合国教科文	-8403
的重要组成部分	-8404
第三产业增加值	-8405
综合配套改革试验区	-8406
中央政治局常务委员会	-8407
国家级非物质文化遗产	-8408
台湾中华音乐人交流协会	-8409
!”	-8410
-5	-8411
BC	-8412
Cl	-8413
IM	-8414
LI	-8415
ML	-8416
de	-8417
ox	-8418
′,	-8419
▁f	-8420
▁°	-8421
▁到	-8422
▁这	-8423
」)	-8424
一文	-8425
一旦	-8426
一流	-8427
一类	-8428
一道	-8429
万州	-8430
三位	-8431
三江	-8432
上半	-8433
不便	-8434
不分	-8435
不列	-8436
不及	-8437
不如	-8438
不治	-8439
与上	-8440
与之	-8441
与外	-8442
专区	-8443
专属	-8444
东胡	-8445
两党	-8446
两地	-8447
中日	-8448
中说	-8449
主机	-8450
之争	-8451
之事	-8452
也使	-8453
也称	-8454
也都	-8455
于格	-8456
互助	-8457
五原	-8458
京广	-8459
人之	-8460
人声	-8461
仅在	-8462
从中	-8463
以求	-8464
任意	-8465
伊利	-8466
优惠	-8467
会谈	-8468
会面	-8469
会馆	-8470
伟大	-8471
传奇	-8472
但仍	-8473
但其	-8474
依法	-8475
俄语	-8476
俗称	-8477
停战	-8478
元洪	-8479
先驱	-8480
克尔	-8481
克族	-8482
入主	-8483
入关	-8484
八十	-8485
八月	-8486
公报	-8487
其弟	-8488
冀鲁	-8489
内有	-8490
内河	-8491
内经	-8492
写成	-8493
写道	-8494
冠状	-8495
冰洋	-8496
减轻	-8497
几十	-8498
分化	-8499
分解	-8500
划定	-8501
前来	-8502
前进	-8503
加冕	-8504
加剧	-8505
北上	-8506
北岛	-8507
北面	-8508
华文	-8509
卑斯	-8510
单元	-8511
历法	-8512
历程	-8513
参照	-8514
参观	-8515
取而	-8516
受邀	-8517
口头	-8518
只会	-8519
只剩	-8520
台山	-8521
叱咤	-8522
名家	-8523
后人	-8524
后唐	-8525
后被	-8526
君子	-8527
听从	-8528
周礼	-8529
哀帝	-8530
哥德	-8531
唐人	-8532
啤酒	-8533
囚犯	-8534
四军	-8535
四百	-8536
围棋	-8537
图灵	-8538
圆形	-8539
地主	-8540
城内	-8541
塔夫	-8542
壁画	-8543
备受	-8544
外地	-8545
外语	-8546
多万	-8547
大典	-8548
大洋	-8549
大纲	-8550
大肆	-8551
大鹏	-8552
天空	-8553
天竺	-8554
太上	-8555
太炎	-8556
奏唱	-8557
威海	-8558
安平	-8559
安禄	-8560
安置	-8561
宋元	-8562
宋教	-8563
实在	-8564
宣慰	-8565
对待	-8566
尊称	-8567
尘埃	-8568
尼罗	-8569
展现	-8570
山的	-8571
州县	-8572
左上	-8573
左派	-8574
巴基	-8575
市内	-8576
市域	-8577
市有	-8578
布列	-8579
师大	-8580
席位	-8581
席次	-8582
年内	-8583
年所	-8584
年春	-8585
并列	-8586
并向	-8587
并存	-8588
广南	-8589
开皇	-8590
异常	-8591
弟弟	-8592
强迫	-8593
径流	-8594
德州	-8595
志异	-8596
思明	-8597
意指	-8598
房地	-8599
打压	-8600
扶持	-8601
承担	-8602
承诺	-8603
排序	-8604
排放	-8605
排量	-8606
探究	-8607
接替	-8608
提前	-8609
携带	-8610
撤往	-8611
操控	-8612
改制	-8613
改由	-8614
放射	-8615
故乡	-8616
故居	-8617
料理	-8618
新星	-8619
新生	-8620
时装	-8621
是大	-8622
是用	-8623
景帝	-8624
暗杀	-8625
暴动	-8626
曲折	-8627
月下	-8628
有权	-8629
本书	-8630
权益	-8631
杉矶	-8632
李宗	-8633
极力	-8634
柔然	-8635
树种	-8636
栽培	-8637
检测	-8638
模块	-8639
横滨	-8640
横跨	-8641
次要	-8642
武王	-8643
民歌	-8644
氛围	-8645
水力	-8646
水师	-8647
水源	-8648
汇集	-8649
汉阳	-8650
汕头	-8651
江县	-8652
沦为	-8653
河套	-8654
治国	-8655
沼泽	-8656
泊位	-8657
波长	-8658
洞穴	-8659
洪水	-8660
浑河	-8661
混沌	-8662
温和	-8663
游览	-8664
灭绝	-8665
炎热	-8666
燕云	-8667
燕山	-8668
牛肉	-8669
特有	-8670
牺牲	-8671
犬戎	-8672
王浚	-8673
现为	-8674
理智	-8675
甲午	-8676
电报	-8677
疆土	-8678
疗效	-8679
百越	-8680
的可	-8681
的和	-8682
的字	-8683
皆是	-8684
盟旗	-8685
相差	-8686
真的	-8687
石头	-8688
研制	-8689
硬币	-8690
磁场	-8691
祖父	-8692
神农	-8693
神户	-8694
空前	-8695
立国	-8696
立宪	-8697
端的	-8698
筹划	-8699
精英	-8700
紫阳	-8701
红外	-8702
细节	-8703
缩小	-8704
罚款	-8705
罢免	-8706
美利	-8707
美式	-8708
考量	-8709
胜地	-8710
臣服	-8711
自有	-8712
船旗	-8713
节奏	-8714
花岗	-8715
莱茵	-8716
萧条	-8717
装甲	-8718
西学	-8719
西宁	-8720
西湖	-8721
解读	-8722
订定	-8723
记作	-8724
诞辰	-8725
详见	-8726
诸岛	-8727
谈话	-8728
财经	-8729
贷款	-8730
费马	-8731
赛局	-8732
越野	-8733
足以	-8734
转往	-8735
转折	-8736
辞职	-8737
辨证	-8738
辽代	-8739
辽朝	-8740
达斡	-8741
过世	-8742
过大	-8743
这部	-8744
远的	-8745
连同	-8746
退守	-8747
送往	-8748
选拔	-8749
逼近	-8750
遗存	-8751
遗留	-8752
避难	-8753
郊区	-8754
都可	-8755
鄱阳	-8756
里面	-8757
重用	-8758
野战	-8759
锡林	-8760
长白	-8761
陆战	-8762
陈毅	-8763
随时	-8764
雕刻	-8765
面貌	-8766
顶级	-8767
颇为	-8768
风云	-8769
飞船	-8770
首批	-8771
首长	-8772
驻扎	-8773
高温	-8774
齐齐	-8775
龟兹	-8776
(30	-8777
.02	-8778
.15	-8779
.87	-8780
1.4	-8781
116	-8782
170	-8783
20%	-8784
350	-8785
5%,	-8786
60%	-8787
90%	-8788
III	-8789
Net	-8790
Per	-8791
ial	-8792
ish	-8793
mac	-8794
mat	-8795
ong	-8796
ost	-8797
ris	-8798
rou	-8799
tel	-8800
▁一些	-8801
▁内核	-8802
▁农业	-8803
▁北宋	-8804
▁新疆	-8805
▁日本	-8806
、-{	-8807
一直在	-8808
一般的	-8809
不列颠	-8810
与其它	-8811
与应用	-8812
中提到	-8813
中获得	-8814
为目的	-8815
举行的	-8816
乌拉尔	-8817
事变后	-8818
井冈山	-8819
产生于	-8820
人口约	-8821
代表团	-8822
以上海	-8823
以南的	-8824
众议院	-8825
伴随着	-8826
佛教徒	-8827
作为对	-8828
作出了	-8829
作曲家	-8830
使用在	-8831
供给与	-8832
依次为	-8833
依赖于	-8834
储量的	-8835
公认的	-8836
关注的	-8837
其中国	-8838
其主要	-8839
凝聚态	-8840
分别有	-8841
则是在	-8842
北冰洋	-8843
北匈奴	-8844
十三年	-8845
升格为	-8846
半岛的	-8847
发源地	-8848
发电厂	-8849
发表的	-8850
可以由	-8851
史上的	-8852
各国的	-8853
周平王	-8854
和上海	-8855
和中央	-8856
和科学	-8857
喀斯特	-8858
喜爱的	-8859
因为在	-8860
国旗护	-8861
在广东	-8862
在海外	-8863
在现代	-8864
在经过	-8865
在这些	-8866
城市和	-8867
复杂性	-8868
大剧院	-8869
大约在	-8870
天津港	-8871
太行山	-8872
学习的	-8873
宋教仁	-8874
导致的	-8875
工业的	-8876
工商业	-8877
工艺品	-8878
市场上	-8879
平原的	-8880
年为止	-8881
年获得	-8882
并通过	-8883
张家口	-8884
形式的	-8885
往往是	-8886
微积分	-8887
性社团	-8888
意义的	-8889
感兴趣	-8890
或地区	-8891
才得以	-8892
拉丁文	-8893
拜占庭	-8894
控制权	-8895
支持的	-8896
新时代	-8897
无线电	-8898
旧金山	-8899
明确的	-8900
是国家	-8901
最繁忙	-8902
来描述	-8903
构成的	-8904
此时的	-8905
殖民者	-8906
沈阳市	-8907
洛杉矶	-8908
深圳的	-8909
火车站	-8910
爱德华	-8911
王守澄	-8912
珠三角	-8913
电影中	-8914
疾病的	-8915
的中央	-8916
的人均	-8917
的唯一	-8918
的大量	-8919
的开发	-8920
的方针	-8921
的消息	-8922
的独立	-8923
的观念	-8924
的认识	-8925
皮埃尔	-8926
社会和	-8927
章太炎	-8928
第四次	-8929
等地区	-8930
简称为	-8931
管辖的	-8932
篇小说	-8933
类似于	-8934
经济和	-8935
结束了	-8936
网路上	-8937
翻译成	-8938
良好的	-8939
苏联在	-8940
著作权	-8941
蒙古人	-8942
行动的	-8943
解放区	-8944
资料库	-8945
赵紫阳	-8946
起义军	-8947
超新星	-8948
转化为	-8949
追溯至	-8950
都不是	-8951
银行间	-8952
问题是	-8953
随后的	-8954
非官方	-8955
音乐的	-8956
黎元洪	-8957
(189	-8958
10%,	-8959
1200	-8960
1896	-8961
1901	-8962
1903	-8963
1905	-8964
1927	-8965
1942	-8966
1954	-8967
1959	-8968
1961	-8969
2019	-8970
Blog	-8971
ECMA	-8972
Open	-8973
ions	-8974
▁河北省	-8975
▁深圳市	-8976
一个新的	-8977
不同种类	-8978
中国传统	-8979
中国历史	-8980
为中心的	-8981
主要负责	-8982
举例来说	-8983
举例而言	-8984
了一系列	-8985
传入中国	-8986
体育中心	-8987
其他地区	-8988
内蒙古的	-8989
冠状病毒	-8990
医疗保险	-8991
医科大学	-8992
历史事件	-8993
发展成为	-8994
取而代之	-8995
周边地区	-8996
唯物主义	-8997
国际旅游	-8998
国际汇率	-8999
地理学家	-9000
基督宗教	-9001
学者认为	-9002
尽管如此	-9003
山东半岛	-9004
山地丘陵	-9005
市场失灵	-9006
布列塔尼	-9007
帝国主义	-9008
平均海拔	-9009
年代中期	-9010
年的一项	-9011
年进行的	-9012
广泛使用	-9013
总面积为	-9014
成为全国	-9015
成为首位	-9016
所带来的	-9017
摩天大楼	-9018
改国号为	-9019
政治上的	-9020
文字记载	-9021
无产阶级	-9022
明清时期	-9023
气候类型	-9024
河西走廊	-9025
注音符号	-9026
游牧民族	-9027
燕云十六	-9028
理论研究	-9029
生育政策	-9030
的发祥地	-9031
的影响下	-9032
的计算机	-9033
的重要性	-9034
直接投资	-9035
算起约有	-9036
经济体系	-9037
经济文化	-9038
统一资源	-9039
聊斋志异	-9040
表演艺术	-9041
西南地区	-9042
西南官话	-9043
语言学家	-9044
还有一些	-9045
进行研究	-9046
金融危机	-9047
阿尔卑斯	-9048
面向对象	-9049
香港乐坛	-9050
驱动程式	-9051
齐齐哈尔	-9052
5,000	-9053
6,000	-9054
Linus	-9055
acker	-9056
▁1950	-9057
▁2001	-9058
▁克利斯登	-9059
▁另一方面	-9060
。1921	-9061
。1925	-9062
。1927	-9063
。1956	-9064
。1966	-9065
。1970	-9066
。1989	-9067
。1996	-9068
之间的互动	-9069
人民解放军	-9070
凯恩斯主义	-9071
十字军东征	-9072
孙中山先生	-9073
宗教或信奉	-9074
撤销抚顺市	-9075
旅客吞吐量	-9076
最为著名的	-9077
满族自治县	-9078
珠江三角洲	-9079
电影制片厂	-9080
的研究领域	-9081
米利都学派	-9082
维基百科在	-9083
联合国大会	-9084
自然地理学	-9085
重点实验室	-9086
阿尔及利亚	-9087
革命根据地	-9088
中国共产党和	-9089
中国工农红军	-9090
信仰伊斯兰教	-9091
南京国民政府	-9092
抗日战争期间	-9093
报告没有提供	-9094
极端最低气温	-9095
深圳经济特区	-9096
热带季风气候	-9097
程序设计语言	-9098
统一资源定位	-9099
维吾尔自治区	-9100
维基百科计划	-9101
esearch	-9102
中文维基百科的	-9103
共产主义青年团	-9104
第一届全体会议	-9105
维基百科的内容	-9106
中华民国国民政府	-9107
社会主义市场经济	-9108
联合国教科文组织	-9109
国家重点风景名胜区	-9110
报告没有提供其他宗教的	-9111
"。	-9112
(《	-9113
-9	-9114
6,	-9115
;《	-9116
AI	-9117
GO	-9118
Ph	-9119
SP	-9120
au	-9121
ek	-9122
ti	-9123
▁"	-9124
▁:	-9125
▁<	-9126
▁Y	-9127
▁r	-9128
▁宋	-9129
▁该	-9130
一党	-9131
一台	-9132
一座	-9133
一张	-9134
一来	-9135
一点	-9136
一统	-9137
万户	-9138
三家	-9139
上演	-9140
不利	-9141
不在	-9142
不大	-9143
不用	-9144
专精	-9145
专题	-9146
业和	-9147
业的	-9148
东站	-9149
东都	-9150
两院	-9151
主城	-9152
主打	-9153
乌鲁	-9154
乘机	-9155
九二	-9156
也从	-9157
乡土	-9158
争执	-9159
事宜	-9160
二线	-9161
五帝	-9162
五百	-9163
交响	-9164
亦可	-9165
亦在	-9166
亦被	-9167
人于	-9168
人党	-9169
仅是	-9170
代价	-9171
会长	-9172
传输	-9173
传达	-9174
伤寒	-9175
但它	-9176
但有	-9177
作义	-9178
侵袭	-9179
保卫	-9180
修宪	-9181
僖宗	-9182
先是	-9183
先验	-9184
光谱	-9185
全美	-9186
公国	-9187
公安	-9188
兰州	-9189
兵败	-9190
养生	-9191
内涵	-9192
写了	-9193
写入	-9194
军方	-9195
军舰	-9196
军衔	-9197
凤凰	-9198
出产	-9199
出身	-9200
切割	-9201
刘备	-9202
判决	-9203
到底	-9204
制约	-9205
削减	-9206
前提	-9207
务实	-9208
区划	-9209
千瓦	-9210
升为	-9211
半数	-9212
协约	-9213
卓越	-9214
单列	-9215
南非	-9216
占地	-9217
占比	-9218
即今	-9219
发了	-9220
发售	-9221
口音	-9222
史家	-9223
史达	-9224
同名	-9225
后于	-9226
后代	-9227
向前	-9228
启用	-9229
周作	-9230
唐初	-9231
唐山	-9232
商埠	-9233
善后	-9234
喇嘛	-9235
器官	-9236
四周	-9237
围剿	-9238
国势	-9239
在与	-9240
坪坝	-9241
城县	-9242
培育	-9243
填词	-9244
增多	-9245
处决	-9246
外蒙	-9247
多党	-9248
多变	-9249
多在	-9250
多座	-9251
多篇	-9252
大将	-9253
大肚	-9254
太大	-9255
夫妇	-9256
奉行	-9257
套件	-9258
奢侈	-9259
女娲	-9260
好评	-9261
如在	-9262
孙吴	-9263
孙氏	-9264
宗派	-9265
定于	-9266
定制	-9267
定址	-9268
实作	-9269
宣誓	-9270
宫崎	-9271
家中	-9272
家人	-9273
密尔	-9274
富汗	-9275
对付	-9276
对照	-9277
导向	-9278
将来	-9279
小倩	-9280
少于	-9281
尔喀	-9282
尔河	-9283
尔的	-9284
就此	-9285
尽快	-9286
局限	-9287
展览	-9288
属国	-9289
山岛	-9290
巨星	-9291
已在	-9292
巴县	-9293
巴西	-9294
幅度	-9295
年于	-9296
年他	-9297
年以	-9298
年才	-9299
库克	-9300
应付	-9301
度和	-9302
度量	-9303
延安	-9304
弗里	-9305
弗雷	-9306
强势	-9307
彩色	-9308
律师	-9309
德斯	-9310
德罗	-9311
忽视	-9312
总管	-9313
恶劣	-9314
成份	-9315
成文	-9316
战火	-9317
所称	-9318
所能	-9319
抒情	-9320
投奔	-9321
抛弃	-9322
抱持	-9323
担忧	-9324
招募	-9325
持有	-9326
指代	-9327
掠夺	-9328
探明	-9329
描绘	-9330
提取	-9331
撤出	-9332
改用	-9333
敌对	-9334
教派	-9335
断字	-9336
斯库	-9337
无关	-9338
无可	-9339
日志	-9340
昂贵	-9341
明军	-9342
星际	-9343
景气	-9344
曲艺	-9345
更具	-9346
更换	-9347
最新	-9348
期的	-9349
木齐	-9350
本岛	-9351
机动	-9352
机率	-9353
杀伤	-9354
杂技	-9355
来水	-9356
查阅	-9357
梅花	-9358
歌舞	-9359
此举	-9360
此次	-9361
武后	-9362
死于	-9363
水域	-9364
江口	-9365
江和	-9366
江津	-9367
江等	-9368
河中	-9369
河和	-9370
河网	-9371
海战	-9372
深港	-9373
混淆	-9374
清明	-9375
清水	-9376
渡台	-9377
溥仪	-9378
瀑布	-9379
火箭	-9380
灾难	-9381
热门	-9382
熟悉	-9383
爱情	-9384
爵士	-9385
片段	-9386
牡丹	-9387
特尔	-9388
状元	-9389
猜想	-9390
玄菟	-9391
现行	-9392
珍珠	-9393
生人	-9394
用法	-9395
电荷	-9396
白人	-9397
百强	-9398
的各	-9399
的正	-9400
盐田	-9401
省长	-9402
眼睛	-9403
石碑	-9404
矿物	-9405
碰撞	-9406
磁碟	-9407
祖国	-9408
禅宗	-9409
等部	-9410
篮子	-9411
精选	-9412
约瑟	-9413
经贸	-9414
经院	-9415
维奇	-9416
维希	-9417
维新	-9418
缓和	-9419
罗姆	-9420
美学	-9421
联手	-9422
聚焦	-9423
背后	-9424
脚踏	-9425
节制	-9426
英属	-9427
英镑	-9428
莲花	-9429
蓟县	-9430
虔诚	-9431
虚构	-9432
血缘	-9433
行署	-9434
街头	-9435
补贴	-9436
被捕	-9437
西岸	-9438
规格	-9439
解严	-9440
解剖	-9441
解析	-9442
警方	-9443
议和	-9444
讲话	-9445
论治	-9446
诏书	-9447
试著	-9448
语句	-9449
诺夫	-9450
课题	-9451
调制	-9452
赔款	-9453
起伏	-9454
起步	-9455
起草	-9456
超市	-9457
跨国	-9458
身分	-9459
车型	-9460
辈出	-9461
辉煌	-9462
辛基	-9463
辨识	-9464
迁回	-9465
运筹	-9466
近似	-9467
追击	-9468
退休	-9469
选为	-9470
造型	-9471
造纸	-9472
部下	-9473
部众	-9474
郭勒	-9475
郭子	-9476
都由	-9477
配备	-9478
重力	-9479
重叠	-9480
闭会	-9481
防卫	-9482
防城	-9483
防范	-9484
阴影	-9485
阻挠	-9486
阻碍	-9487
附加	-9488
隐藏	-9489
雏形	-9490
雕塑	-9491
雷州	-9492
霍查	-9493
鞍山	-9494
韩愈	-9495
预防	-9496
额外	-9497
食材	-9498
餐馆	-9499
驻守	-9500
骑士	-9501
魏国	-9502
魔鬼	-9503
黑洞	-9504
齐鲁	-9505
龙山	-9506
)」。	-9507
+</	-9508
,14	-9509
.08	-9510
.1%	-9511
.17	-9512
.74	-9513
.93	-9514
.99	-9515
0.6	-9516
104	-9517
107	-9518
127	-9519
220	-9520
280	-9521
450	-9522
50%	-9523
589	-9524
95%	-9525
CPU	-9526
are	-9527
ere	-9528
eta	-9529
ign	-9530
int	-9531
lic	-9532
oft	-9533
ola	-9534
ord	-9535
ory	-9536
the	-9537
▁10	-9538
▁Pr	-9539
▁例如	-9540
▁关于	-9541
▁本省	-9542
▁清朝	-9543
▁王菲	-9544
▁知名	-9545
》:“	-9546
」,「	-9547
一个新	-9548
一定要	-9549
不可知	-9550
不断地	-9551
不相同	-9552
不符合	-9553
世纪后	-9554
东北亚	-9555
东印度	-9556
主题曲	-9557
举行了	-9558
也不是	-9559
也可能	-9560
也提供	-9561
乾隆帝	-9562
事件后	-9563
五星旗	-9564
亿人次	-9565
以汉族	-9566
使中国	-9567
便开始	-9568
傅作义	-9569
光武帝	-9570
公交车	-9571
公里的	-9572
其他人	-9573
内人党	-9574
决定了	-9575
出土的	-9576
出版物	-9577
出现过	-9578
分子的	-9579
分析和	-9580
则是以	-9581
北部湾	-9582
医学院	-9583
十九年	-9584
占据了	-9585
原因是	-9586
又分为	-9587
发布了	-9588
发祥地	-9589
发行量	-9590
发起了	-9591
受到了	-9592
叙利亚	-9593
可以从	-9594
可支配	-9595
史达林	-9596
各地区	-9597
合众国	-9598
吸引了	-9599
和德国	-9600
和政府	-9601
和数学	-9602
和欧洲	-9603
和波兰	-9604
唐宣宗	-9605
固定的	-9606
国内的	-9607
国际化	-9608
在数学	-9609
在新疆	-9610
在河南	-9611
地区有	-9612
地方的	-9613
士大夫	-9614
多年来	-9615
大大帝	-9616
大陆的	-9617
奠基人	-9618
奥古斯	-9619
始建于	-9620
委员长	-9621
媒体的	-9622
孔子为	-9623
存在着	-9624
安禄山	-9625
完成了	-9626
定义的	-9627
实现的	-9628
客家人	-9629
对政治	-9630
对日本	-9631
小部分	-9632
居住于	-9633
山脉和	-9634
已发现	-9635
已建成	-9636
年成立	-9637
年达到	-9638
年通过	-9639
并且以	-9640
并将其	-9641
应该要	-9642
延伸到	-9643
延伸至	-9644
开创了	-9645
德意志	-9646
总统府	-9647
意味着	-9648
抚顺县	-9649
拉丁语	-9650
持续到	-9651
收录了	-9652
政府和	-9653
政治家	-9654
政策和	-9655
数十年	-9656
方法的	-9657
方程式	-9658
是如何	-9659
是属于	-9660
是浙江	-9661
是香港	-9662
更好的	-9663
更容易	-9664
曾经在	-9665
最低点	-9666
最畅销	-9667
最高点	-9668
月下旬	-9669
有大约	-9670
有效地	-9671
有的归	-9672
有部分	-9673
本土的	-9674
沙坪坝	-9675
渝中区	-9676
激烈的	-9677
然后再	-9678
爆发了	-9679
版权法	-9680
特别区	-9681
特别市	-9682
环境的	-9683
生物体	-9684
的一切	-9685
的一般	-9686
的主权	-9687
的人权	-9688
的位置	-9689
的例子	-9690
的假设	-9691
的前提	-9692
的大小	-9693
的学校	-9694
的家庭	-9695
的效果	-9696
的来源	-9697
的民主	-9698
的现代	-9699
的理解	-9700
的电脑	-9701
的精神	-9702
的角度	-9703
的计算	-9704
的许多	-9705
皮尔逊	-9706
目的地	-9707
相结合	-9708
省会为	-9709
确定了	-9710
移民潮	-9711
程式码	-9712
空间的	-9713
等各种	-9714
等离子	-9715
筹备会	-9716
管理局	-9717
管理的	-9718
类增长	-9719
类游戏	-9720
结合了	-9721
给出了	-9722
绝对数	-9723
绥远省	-9724
而遭到	-9725
自来水	-9726
自立为	-9727
衍生出	-9728
表现在	-9729
覆盖率	-9730
认定为	-9731
购买力	-9732
起来的	-9733
足球赛	-9734
距今约	-9735
轨电车	-9736
软件的	-9737
过去的	-9738
这个词	-9739
选举权	-9740
郑成功	-9741
都拉斯	-9742
都是以	-9743
野战军	-9744
铁路网	-9745
长时间	-9746
长春市	-9747
降雨量	-9748
革命的	-9749
鲁迅在	-9750
黄浦江	-9751
1300	-9752
1600	-9753
1700	-9754
1928	-9755
1951	-9756
1962	-9757
1965	-9758
1977	-9759
▁北京市	-9760
一个中国	-9761
世纪早期	-9762
个民族乡	-9763
个自治州	-9764
中等教育	-9765
临时约法	-9766
主导地位	-9767
主要城市	-9768
乌鲁木齐	-9769
人民币的	-9770
今内蒙古	-9771
他的著作	-9772
体育活动	-9773
保护动物	-9774
军事冲突	-9775
军委主席	-9776
农业大学	-9777
北京大学	-9778
华夏文明	-9779
南沙群岛	-9780
发展迅速	-9781
只有一个	-9782
同一时间	-9783
在不同的	-9784
塞尔维亚	-9785
复杂多样	-9786
孙中山在	-9787
宣布独立	-9788
对伊拉克	-9789
平原地区	-9790
年代以后	-9791
广东省的	-9792
应用程式	-9793
建国初期	-9794
弗洛伊德	-9795
当选总统	-9796
影响力的	-9797
快速增长	-9798
成为欧洲	-9799
报业集团	-9800
政治学家	-9801
文化遗址	-9802
是中国的	-9803
是著名的	-9804
普通高中	-9805
普通高校	-9806
最高法院	-9807
有很大的	-9808
正在建设	-9809
武昌起义	-9810
毛泽东的	-9811
汉语拼音	-9812
法国国家	-9813
清末民初	-9814
物价水平	-9815
物理定律	-9816
生活水平	-9817
生物学家	-9818
电影评论	-9819
相互关系	-9820
矿产资源	-9821
第三国际	-9822
粮食作物	-9823
约占全国	-9824
纳粹德国	-9825
经典力学	-9826
经济中心	-9827
经济发达	-9828
经济学派	-9829
美国政府	-9830
脚本语言	-9831
药用植物	-9832
菲律宾海	-9833
行为主义	-9834
西方世界	-9835
许可证的	-9836
赫尔辛基	-9837
这个概念	-9838
这个问题	-9839
锡林郭勒	-9840
长期以来	-9841
革命党人	-9842
香港歌手	-9843
-2007	-9844
▁1937	-9845
▁1999	-9846
▁台湾蓝鹊	-9847
。1916	-9848
。1965	-9849
。1981	-9850
与中国大陆	-9851
人民币汇率	-9852
亿元人民币	-9853
供给与需求	-9854
凯恩斯学派	-9855
各少数民族	-9856
在中华民国	-9857
安史之乱后	-9858
燕云十六州	-9859
维基百科中	-9860
超级计算机	-9861
轴心国部队	-9862
重要的地位	-9863
长江三角洲	-9864
高速公路的	-9865
世界上第一个	-9866
五代十国时期	-9867
亚历山大大帝	-9868
同期全国平均	-9869
极端最高气温	-9870
程度的人口为	-9871
维基百科作为	-9872
中共中央政治局	-9873
统一资源定位符	-9874
青天白日满地红	-9875
国家级自然保护区	-9876
联合国安全理事会	-9877
Wikipedia	-9878
▁Research	-9879
中央军事委员会主席	-9880
的人口无宗教或信奉	-9881
中华人民共和国中央人民政府	-9882
报告没有提供其他宗教的统计数字	-9883
)」	-9884
++	-9885
-1	-9886
-3	-9887
2)	-9888
5,	-9889
6.	-9890
9,	-9891
;;	-9892
AC	-9893
Ap	-9894
Ge	-9895
HP	-9896
IC	-9897
My	-9898
NT	-9899
TP	-9900
aw	-9901
ep	-9902
ht	-9903
ma	-9904
uc	-9905
yn	-9906
“”	-9907
▁7	-9908
▁元	-9909
▁新	-9910
▁汉	-9911
、7	-9912
、9	-9913
一共	-9914
一所	-9915
一等	-9916
一组	-9917
一路	-9918
七个	-9919
万台	-9920
三皇	-9921
三者	-9922
上书	-9923
上千	-9924
上午	-9925
上限	-9926
下列	-9927
不下	-9928
不以	-9929
不好	-9930
不良	-9931
与否	-9932
与孙	-9933
专科	-9934
专著	-9935
东岸	-9936
两广	-9937
两栖	-9938
两省	-9939
个镇	-9940
中庸	-9941
中苏	-9942
中英	-9943
为名	-9944
为数	-9945
主峰	-9946
丽水	-9947
举兵	-9948
举动	-9949
义和	-9950
之以	-9951
之势	-9952
之学	-9953
之役	-9954
九世	-9955
也就	-9956
争端	-9957
事故	-9958
事的	-9959
二月	-9960
二等	-9961
五权	-9962
五种	-9963
亦称	-9964
享受	-9965
亭县	-9966
亲信	-9967
人人	-9968
人及	-9969
人对	-9970
人次	-9971
仁宗	-9972
仅占	-9973
从来	-9974
以免	-9975
伏羲	-9976
优质	-9977
会合	-9978
会师	-9979
会等	-9980
伤害	-9981
伴奏	-9982
但被	-9983
余个	-9984
余部	-9985
作词	-9986
侮辱	-9987
侵入	-9988
便有	-9989
保税	-9990
信众	-9991
信教	-9992
偏向	-9993
偏见	-9994
健身	-9995
催生	-9996
儒术	-9997
元培	-9998
元明	-9999
克达	-10000
全力	-10001
八个	-10002
六安	-10003
六盘	-10004
内乱	-10005
册封	-10006
军力	-10007
军民	-10008
军火	-10009
农场	-10010
农家	-10011
农林	-10012
农牧	-10013
冯玉	-10014
几经	-10015
分会	-10016
划出	-10017
列举	-10018
刘氏	-10019
则与	-10020
则于	-10021
初唐	-10022
初始	-10023
别人	-10024
前燕	-10025
办理	-10026
励精	-10027
劲歌	-10028
匈牙	-10029
北元	-10030
千万	-10031
升至	-10032
华的	-10033
协作	-10034
单纯	-10035
卖家	-10036
南汉	-10037
卡拉	-10038
即期	-10039
原为	-10040
反射	-10041
叛变	-10042
只占	-10043
只好	-10044
只爱	-10045
可比	-10046
可达	-10047
右派	-10048
各有	-10049
合资	-10050
同行	-10051
后晋	-10052
后梁	-10053
听到	-10054
告知	-10055
命运	-10056
和安	-10057
和小	-10058
嘉庆	-10059
四边	-10060
四面	-10061
回回	-10062
固体	-10063
国教	-10064
图治	-10065
圣人	-10066
在不	-10067
地跨	-10068
均属	-10069
基数	-10070
塔尔	-10071
士族	-10072
外围	-10073
外族	-10074
多半	-10075
多是	-10076
多重	-10077
夜景	-10078
大山	-10079
大赛	-10080
天命	-10081
太守	-10082
女王	-10083
妈祖	-10084
妥协	-10085
姓氏	-10086
委任	-10087
委托	-10088
子女	-10089
孙之	-10090
孙子	-10091
完工	-10092
客户	-10093
宣帝	-10094
宣统	-10095
宽广	-10096
密的	-10097
察布	-10098
封面	-10099
将于	-10100
少量	-10101
就职	-10102
尼尔	-10103
尼泊	-10104
山南	-10105
已久	-10106
布袋	-10107
常委	-10108
常有	-10109
干流	-10110
平时	-10111
年仅	-10112
幽王	-10113
庚子	-10114
府路	-10115
延边	-10116
建安	-10117
开来	-10118
开除	-10119
引导	-10120
弱的	-10121
弹道	-10122
强力	-10123
归入	-10124
当日	-10125
录取	-10126
待遇	-10127
很高	-10128
徐州	-10129
微粒	-10130
徽州	-10131
心说	-10132
性地	-10133
总称	-10134
恐慌	-10135
意的	-10136
懂得	-10137
成王	-10138
或少	-10139
战俘	-10140
战胜	-10141
手术	-10142
才有	-10143
打入	-10144
扩充	-10145
把持	-10146
报复	-10147
挂牌	-10148
指控	-10149
据点	-10150
排球	-10151
接连	-10152
推移	-10153
提起	-10154
揭示	-10155
播出	-10156
收费	-10157
改立	-10158
放宽	-10159
政坛	-10160
效益	-10161
敌人	-10162
敏感	-10163
教和	-10164
敦煌	-10165
数码	-10166
整顿	-10167
文书	-10168
斯图	-10169
斯德	-10170
新军	-10171
方脉	-10172
施政	-10173
施莱	-10174
日均	-10175
日晚	-10176
日月	-10177
早已	-10178
时速	-10179
普罗	-10180
普选	-10181
暴雨	-10182
曲线	-10183
更早	-10184
曾为	-10185
最先	-10186
最广	-10187
有为	-10188
朝阳	-10189
期货	-10190
朱棣	-10191
李茂	-10192
条文	-10193
林彪	-10194
果子	-10195
标示	-10196
标题	-10197
根基	-10198
格里	-10199
检索	-10200
检视	-10201
模组	-10202
横贯	-10203
正如	-10204
殷墟	-10205
每月	-10206
毛额	-10207
民意	-10208
民报	-10209
气压	-10210
氧气	-10211
永康	-10212
汗位	-10213
油画	-10214
法与	-10215
泛蓝	-10216
波及	-10217
派人	-10218
海派	-10219
淮北	-10220
清河	-10221
温差	-10222
港和	-10223
滇军	-10224
漫长	-10225
潍坊	-10226
激光	-10227
火焰	-10228
灰岩	-10229
灵活	-10230
烟草	-10231
热情	-10232
热月	-10233
热点	-10234
热量	-10235
焚烧	-10236
照顾	-10237
燕王	-10238
爱因	-10239
牧区	-10240
牧师	-10241
物件	-10242
独裁	-10243
环绕	-10244
玻色	-10245
珍贵	-10246
球员	-10247
瓦剌	-10248
生不	-10249
由来	-10250
申辩	-10251
电池	-10252
留学	-10253
登基	-10254
白金	-10255
的信	-10256
的古	-10257
的名	-10258
的天	-10259
的李	-10260
监禁	-10261
盟国	-10262
直觉	-10263
礼拜	-10264
禁军	-10265
种子	-10266
科目	-10267
租庸	-10268
红地	-10269
约定	-10270
约束	-10271
纳河	-10272
线和	-10273
经理	-10274
结盟	-10275
统称	-10276
绿化	-10277
编曲	-10278
缘故	-10279
缩短	-10280
缺陷	-10281
网景	-10282
罢工	-10283
翌年	-10284
耀邦	-10285
而无	-10286
而生	-10287
而由	-10288
聚变	-10289
胶东	-10290
胶济	-10291
腹地	-10292
舆论	-10293
船队	-10294
良渚	-10295
色情	-10296
苏丹	-10297
苏里	-10298
若是	-10299
草地	-10300
营养	-10301
落户	-10302
蒸汽	-10303
衙门	-10304
补丁	-10305
补给	-10306
要么	-10307
见于	-10308
视作	-10309
言人	-10310
认证	-10311
讲究	-10312
许昌	-10313
评为	-10314
诗经	-10315
询问	-10316
语族	-10317
说话	-10318
诸部	-10319
调用	-10320
谓之	-10321
败坏	-10322
贩卖	-10323
越剧	-10324
转入	-10325
轮回	-10326
辅政	-10327
还被	-10328
这对	-10329
这门	-10330
进出	-10331
进占	-10332
通辽	-10333
逸仙	-10334
道士	-10335
道理	-10336
郑氏	-10337
郡治	-10338
采行	-10339
里海	-10340
金刚	-10341
金陵	-10342
铁岭	-10343
铁道	-10344
长久	-10345
长足	-10346
门下	-10347
间距	-10348
阿奎	-10349
陆路	-10350
降至	-10351
陕北	-10352
院士	-10353
除外	-10354
除非	-10355
随机	-10356
难民	-10357
集水	-10358
雇用	-10359
霸主	-10360
顺帝	-10361
顺治	-10362
预备	-10363
颇有	-10364
飞往	-10365
食用	-10366
餐厅	-10367
马丁	-10368
黄海	-10369
黑人	-10370
龙门	-10371
-14	-10372
-17	-10373
.11	-10374
.44	-10375
.6%	-10376
1%,	-10377
1.0	-10378
1.9	-10379
101	-10380
106	-10381
108	-10382
109	-10383
125	-10384
144	-10385
173	-10386
230	-10387
270	-10388
3.3	-10389
3.7	-10390
5%;	-10391
650	-10392
7.8	-10393
750	-10394
CNN	-10395
Con	-10396
GCC	-10397
Red	-10398
age	-10399
chn	-10400
con	-10401
ext	-10402
ous	-10403
sca	-10404
}-、	-10405
▁In	-10406
▁pr	-10407
▁re	-10408
▁德国	-10409
▁抚顺	-10410
▁数学	-10411
▁早期	-10412
▁逻辑	-10413
▁隋朝	-10414
▁音乐	-10415
、11	-10416
、20	-10417
《》,	-10418
一体化	-10419
万县市	-10420
万物的	-10421
上半叶	-10422
上属于	-10423
上执行	-10424
上进行	-10425
下降到	-10426
不久后	-10427
不平衡	-10428
不承认	-10429
不断的	-10430
与非洲	-10431
世界第	-10432
中国和	-10433
中部和	-10434
为一个	-10435
为欧洲	-10436
九铁路	-10437
也获得	-10438
书记处	-10439
了一套	-10440
二十四	-10441
亚洲的	-10442
亚里斯	-10443
交通部	-10444
人死亡	-10445
人类在	-10446
从没有	-10447
代数数	-10448
以确保	-10449
价格和	-10450
会产生	-10451
伽利略	-10452
但并不	-10453
但随著	-10454
体系的	-10455
使用于	-10456
保持在	-10457
保留了	-10458
信徒约	-10459
其中一	-10460
其实是	-10461
其次是	-10462
冯玉祥	-10463
减少了	-10464
几十年	-10465
凡尔赛	-10466
出现于	-10467
则主要	-10468
则批评	-10469
则是由	-10470
制作的	-10471
制定的	-10472
制造的	-10473
前苏联	-10474
加洛林	-10475
势力的	-10476
匈牙利	-10477
十一月	-10478
十二月	-10479
千公顷	-10480
升国旗	-10481
华亭县	-10482
南海郡	-10483
印度次	-10484
参与了	-10485
参与的	-10486
反映出	-10487
发展和	-10488
取消了	-10489
古印度	-10490
只不过	-10491
可见光	-10492
台湾后	-10493
史学家	-10494
史思明	-10495
号决议	-10496
各宗教	-10497
合称为	-10498
名义上	-10499
向东南	-10500
周围的	-10501
周边的	-10502
和一个	-10503
和分析	-10504
和历史	-10505
和城市	-10506
和服务	-10507
和研究	-10508
唐宪宗	-10509
喜马拉	-10510
四川话	-10511
因为他	-10512
国际性	-10513
图形化	-10514
在其他	-10515
在很多	-10516
城市群	-10517
城影展	-10518
塔里木	-10519
大体上	-10520
大幅度	-10521
大气层	-10522
大自然	-10523
大致上	-10524
太上皇	-10525
奥尼亚	-10526
女主角	-10527
女性为	-10528
子系统	-10529
学生的	-10530
宇宙的	-10531
实践中	-10532
对应的	-10533
将他们	-10534
尔摩沙	-10535
就已经	-10536
尼古拉	-10537
尼罗河	-10538
布依族	-10539
希腊文	-10540
帽黑客	-10541
平埔族	-10542
平方米	-10543
年同期	-10544
年提出	-10545
年相比	-10546
并进行	-10547
广大的	-10548
应该是	-10549
废除了	-10550
度假区	-10551
开发的	-10552
开始对	-10553
引力波	-10554
引发了	-10555
引起的	-10556
必须在	-10557
性武器	-10558
总共有	-10559
总数为	-10560
总长度	-10561
成熟的	-10562
房屋的	-10563
所著的	-10564
执政的	-10565
挂国旗	-10566
接受了	-10567
改变的	-10568
改编为	-10569
政府对	-10570
数据的	-10571
整体的	-10572
文化及	-10573
文章的	-10574
新儒学	-10575
明太祖	-10576
是代表	-10577
是基于	-10578
暖温带	-10579
更高的	-10580
最后在	-10581
有三个	-10582
有两个	-10583
有关的	-10584
有效性	-10585
李德裕	-10586
李茂贞	-10587
来称呼	-10588
杰出的	-10589
松花江	-10590
架构的	-10591
核武器	-10592
正确的	-10593
每公里	-10594
每年的	-10595
比其他	-10596
气象学	-10597
氢原子	-10598
氢离子	-10599
注意到	-10600
涪陵市	-10601
演出的	-10602
演算法	-10603
物体的	-10604
玄菟郡	-10605
现代的	-10606
现象学	-10607
珊瑚礁	-10608
理论家	-10609
用户在	-10610
申辩篇	-10611
电影院	-10612
电脑的	-10613
男演员	-10614
百万人	-10615
的争议	-10616
的人士	-10617
的制度	-10618
的力量	-10619
的含义	-10620
的因素	-10621
的地域	-10622
的地形	-10623
的市场	-10624
的描述	-10625
的服务	-10626
的机会	-10627
的条款	-10628
的环境	-10629
的程度	-10630
的程式	-10631
的经验	-10632
的记载	-10633
的身份	-10634
的软体	-10635
的还有	-10636
的销量	-10637
短暂的	-10638
稳定性	-10639
第一大	-10640
第三个	-10641
第二天	-10642
等其他	-10643
红船旗	-10644
组成了	-10645
经济带	-10646
编辑器	-10647
而这些	-10648
胡汉民	-10649
胡耀邦	-10650
自然界	-10651
自由和	-10652
莱茵河	-10653
蒙政会	-10654
蔡元培	-10655
被国际	-10656
被用来	-10657
詹姆斯	-10658
认同感	-10659
贸易的	-10660
转移到	-10661
速克达	-10662
都会区	-10663
采用的	-10664
长三角	-10665
阶段的	-10666
阿富汗	-10667
集团等	-10668
青岛市	-10669
非典型	-10670
韩国的	-10671
领域上	-10672
1911	-10673
1919	-10674
1933	-10675
1934	-10676
1982	-10677
3500	-10678
Amer	-10679
John	-10680
ates	-10681
elig	-10682
ment	-10683
▁与其他	-10684
▁公元前	-10685
▁四川省	-10686
▁在中国	-10687
▁在美国	-10688
三个代表	-10689
不确定性	-10690
东部地区	-10691
中华台北	-10692
中国东北	-10693
中国社会	-10694
中文维基	-10695
中等职业	-10696
为了能够	-10697
乌兰察布	-10698
云贵高原	-10699
交通工具	-10700
亨利三世	-10701
人类发展	-10702
今日中国	-10703
代表作有	-10704
传统文化	-10705
全盛时期	-10706
八国联军	-10707
公共汽车	-10708
其中一个	-10709
其中一些	-10710
军总司令	-10711
初等教育	-10712
励精图治	-10713
势力逐渐	-10714
化学物质	-10715
北京地铁	-10716
千岛群岛	-10717
华北地区	-10718
南海诸岛	-10719
发动政变	-10720
古典力学	-10721
合作关系	-10722
合法政府	-10723
同一时期	-10724
同期全国	-10725
喜马拉雅	-10726
四川地区	-10727
国家经济	-10728
国父全集	-10729
在伊拉克	-10730
在此期间	-10731
外汇市场	-10732
天主教会	-10733
天主教堂	-10734
学术领域	-10735
宁夏回族	-10736
实际上是	-10737
宣告成立	-10738
宣告结束	-10739
尤其是在	-10740
工业大学	-10741
巴基斯坦	-10742
应用数学	-10743
应用程序	-10744
开始使用	-10745
开始实行	-10746
形成了以	-10747
影响深远	-10748
总人口为	-10749
恐怖主义	-10750
意大利的	-10751
战争爆发	-10752
所占比重	-10753
所组成的	-10754
播放国歌	-10755
政党轮替	-10756
政府机构	-10757
教育程度	-10758
旅游景点	-10759
旅游资源	-10760
日本帝国	-10761
日本政府	-10762
明末清初	-10763
是基督徒	-10764
最古老的	-10765
最繁忙的	-10766
期望能够	-10767
机会成本	-10768
正式成为	-10769
死亡率为	-10770
毛泽东在	-10771
民主党派	-10772
氢阳离子	-10773
汉语方言	-10774
河流域的	-10775
法国国内	-10776
法国本土	-10777
波罗的海	-10778
海军陆战	-10779
爱因斯坦	-10780
物理理论	-10781
理性主义	-10782
生产毛额	-10783
电影公司	-10784
的大规模	-10785
的比重为	-10786
的许可证	-10787
的过程中	-10788
省份之一	-10789
社会结构	-10790
社会问题	-10791
福尔摩沙	-10792
种植面积	-10793
科举考试	-10794
租庸调制	-10795
类型约占	-10796
约公元前	-10797
经院哲学	-10798
自然灾害	-10799
自然资源	-10800
航空航天	-10801
艺术中心	-10802
象形文字	-10803
财政收入	-10804
质量提升	-10805
贫富差距	-10806
贸易伙伴	-10807
这个名词	-10808
这包括有	-10809
这种方法	-10810
部落联盟	-10811
铁路运输	-10812
预期寿命	-10813
领导地位	-10814
高级中学	-10815
,2005	-10816
,2006	-10817
,2013	-10818
scape	-10819
▁1927	-10820
▁1960	-10821
▁1970	-10822
▁1989	-10823
▁1994	-10824
。1911	-10825
。1913	-10826
。1922	-10827
。1923	-10828
。1926	-10829
。1929	-10830
。1936	-10831
。1983	-10832
中华革命党	-10833
中国最早的	-10834
人数最多的	-10835
仅次于美国	-10836
伊拉克战争	-10837
使用者介面	-10838
公路总里程	-10839
副省级城市	-10840
发展中国家	-10841
可支配收入	-10842
奥斯曼帝国	-10843
居全国首位	-10844
常住人口为	-10845
政治经济学	-10846
是中华民国	-10847
有祖先崇拜	-10848
民主共和国	-10849
的三分之一	-10850
的省份之一	-10851
社会学研究	-10852
设立重庆市	-10853
非典型肺炎	-10854
rosoft	-10855
习近平新时代	-10856
古希腊哲学家	-10857
大英百科全书	-10858
年进行的调查	-10859
是中国最大的	-10860
自由软件运动	-10861
诺贝尔文学奖	-10862
▁中华民国政府	-10863
。......	-10864
中国历史文化名	-10865
加入中国共产党	-10866
▁第二次世界大战	-10867
与中华人民共和国	-10868
人均国内生产总值	-10869
加入世界贸易组织	-10870
次全国代表大会上	-10871
▁Torvalds	-10872
中华人民共和国国歌	-10873
中华人民共和国宪法	-10874
中国特色社会主义思想	-10875
习近平新时代中国特色社会主义思想	-10876
,,	-10877
2%	-10878
3%	-10879
3。	-10880
4。	-10881
Ad	-10882
BA	-10883
CD	-10884
GB	-10885
Hy	-10886
Le	-10887
OT	-10888
PM	-10889
Ti	-10890
VA	-10891
_2	-10892
ah	-10893
ey	-10894
ho	-10895
ng	-10896
sh	-10897
ta	-10898
ug	-10899
ër	-10900
▁Z	-10901
▁至	-10902
▁近	-10903
〉,	-10904
一一	-10905
一举	-10906
一号	-10907
一大	-10908
一行	-10909
七世	-10910
七千	-10911
七闽	-10912
万份	-10913
万国	-10914
上级	-10915
上郡	-10916
下面	-10917
不只	-10918
不复	-10919
不成	-10920
不绝	-10921
不通	-10922
与光	-10923
与南	-10924
与同	-10925
专案	-10926
东低	-10927
东蒙	-10928
东非	-10929
两代	-10930
两军	-10931
两类	-10932
严厉	-10933
严峻	-10934
个性	-10935
中法	-10936
临安	-10937
为之	-10938
为他	-10939
为生	-10940
为高	-10941
举足	-10942
之用	-10943
之类	-10944
之都	-10945
乒乓	-10946
也为	-10947
也于	-10948
也以	-10949
也常	-10950
乱华	-10951
争斗	-10952
二期	-10953
二者	-10954
云中	-10955
互不	-10956
五指	-10957
亚特	-10958
亚鹏	-10959
交谈	-10960
交错	-10961
京城	-10962
京杭	-10963
人本	-10964
今属	-10965
仙台	-10966
代管	-10967
以示	-10968
以色	-10969
企鹅	-10970
伏尔	-10971
传记	-10972
估算	-10973
住民	-10974
体裁	-10975
余万	-10976
佛经	-10977
作霖	-10978
修复	-10979
借口	-10980
债务	-10981
元件	-10982
先河	-10983
克力	-10984
克拉	-10985
入朝	-10986
八旗	-10987
八百	-10988
八达	-10989
公有	-10990
公正	-10991
六世	-10992
兵器	-10993
兵团	-10994
其时	-10995
写实	-10996
军区	-10997
军团	-10998
军备	-10999
农历	-11000
决心	-11001
几次	-11002
凤阳	-11003
凯旋	-11004
出售	-11005
出国	-11006
刑法	-11007
列出	-11008
则从	-11009
制宪	-11010
前任	-11011
前十	-11012
前夕	-11013
剧情	-11014
剧烈	-11015
功利	-11016
加大	-11017
加尔	-11018
加深	-11019
加盟	-11020
努斯	-11021
千金	-11022
南庚	-11023
南端	-11024
南风	-11025
卡斯	-11026
卢沟	-11027
原有	-11028
原生	-11029
原稿	-11030
县通	-11031
友人	-11032
双十	-11033
双边	-11034
反叛	-11035
反复	-11036
反感	-11037
发放	-11038
发育	-11039
取自	-11040
叙事	-11041
可乐	-11042
台海	-11043
各异	-11044
后方	-11045
含量	-11046
呼韩	-11047
和海	-11048
和西	-11049
哈佛	-11050
哈密	-11051
哈拉	-11052
唐律	-11053
唐末	-11054
商周	-11055
喀什	-11056
善于	-11057
四处	-11058
困扰	-11059
国子	-11060
国忠	-11061
土著	-11062
圣母	-11063
在新	-11064
在西	-11065
地说	-11066
场馆	-11067
均在	-11068
坚决	-11069
基亚	-11070
基石	-11071
墨家	-11072
士尼	-11073
夏尔	-11074
外界	-11075
多位	-11076
多出	-11077
多国	-11078
多彩	-11079
大乱	-11080
大使	-11081
大戏	-11082
大渡	-11083
太多	-11084
太湖	-11085
太甲	-11086
失势	-11087
头角	-11088
奖金	-11089
奥托	-11090
她在	-11091
威权	-11092
威特	-11093
子集	-11094
孕育	-11095
字典	-11096
字型	-11097
存有	-11098
存款	-11099
孙自	-11100
学制	-11101
学名	-11102
学府	-11103
学金	-11104
安抚	-11105
安特	-11106
安顺	-11107
宋明	-11108
宪兵	-11109
家宝	-11110
容纳	-11111
宽度	-11112
密布	-11113
富有	-11114
寒带	-11115
对新	-11116
对方	-11117
寻常	-11118
射击	-11119
尊崇	-11120
小国	-11121
少康	-11122
尼德	-11123
岁至	-11124
岛上	-11125
峰会	-11126
川西	-11127
州份	-11128
巡航	-11129
工匠	-11130
巨额	-11131
已达	-11132
巴马	-11133
帝制	-11134
平乱	-11135
年夏	-11136
并用	-11137
并立	-11138
序列	-11139
庐剧	-11140
府和	-11141
建州	-11142
建德	-11143
开支	-11144
弊端	-11145
张勋	-11146
强的	-11147
强硬	-11148
归附	-11149
影子	-11150
得益	-11151
心的	-11152
怎么	-11153
恰当	-11154
惯例	-11155
意愿	-11156
成书	-11157
我不	-11158
或以	-11159
或缺	-11160
所用	-11161
托管	-11162
扩域	-11163
扶余	-11164
批复	-11165
承德	-11166
抉择	-11167
拆除	-11168
招商	-11169
拿下	-11170
按摩	-11171
换取	-11172
捺钵	-11173
排斥	-11174
推测	-11175
推选	-11176
描写	-11177
搭载	-11178
搭配	-11179
撤军	-11180
攻破	-11181
故此	-11182
散布	-11183
数目	-11184
断交	-11185
新型	-11186
方形	-11187
施加	-11188
旋律	-11189
旋转	-11190
族等	-11191
无霜	-11192
日俄	-11193
日期	-11194
时数	-11195
时空	-11196
明初	-11197
明白	-11198
春节	-11199
是新	-11200
显得	-11201
显然	-11202
普鲁	-11203
景教	-11204
曲目	-11205
更在	-11206
更替	-11207
最冷	-11208
最好	-11209
月间	-11210
有灵	-11211
有过	-11212
木材	-11213
末代	-11214
本溪	-11215
本营	-11216
朴素	-11217
机的	-11218
李旦	-11219
极其	-11220
极盛	-11221
极限	-11222
林夕	-11223
林肯	-11224
柳州	-11225
梆子	-11226
欧拉	-11227
歌星	-11228
正体	-11229
此为	-11230
步兵	-11231
武夷	-11232
歼灭	-11233
殆尽	-11234
残疾	-11235
每人	-11236
比起	-11237
氢和	-11238
水岭	-11239
汇丰	-11240
汉地	-11241
沃尔	-11242
法治	-11243
泛滥	-11244
泛绿	-11245
泡沫	-11246
活力	-11247
活的	-11248
流失	-11249
淮海	-11250
深厚	-11251
清党	-11252
渔民	-11253
温泉	-11254
湖等	-11255
满意	-11256
漕运	-11257
火锅	-11258
灭掉	-11259
炮台	-11260
爵位	-11261
牛党	-11262
牧场	-11263
特种	-11264
特里	-11265
独尊	-11266
猿人	-11267
王刘	-11268
环城	-11269
生效	-11270
用了	-11271
用水	-11272
疑问	-11273
病患	-11274
病情	-11275
的东	-11276
的场	-11277
的女	-11278
的词	-11279
的选	-11280
皇族	-11281
皖北	-11282
皮革	-11283
益州	-11284
监控	-11285
监测	-11286
监狱	-11287
盘庚	-11288
盟市	-11289
直系	-11290
直观	-11291
相容	-11292
相间	-11293
省市	-11294
省部	-11295
真相	-11296
着手	-11297
睿宗	-11298
知的	-11299
短缺	-11300
石敬	-11301
研讨	-11302
确切	-11303
礼乐	-11304
神灵	-11305
神祇	-11306
离婚	-11307
种的	-11308
秦王	-11309
称臣	-11310
移交	-11311
稠密	-11312
穆罕	-11313
究竟	-11314
空虚	-11315
竣工	-11316
笔记	-11317
等待	-11318
简易	-11319
粗略	-11320
粤北	-11321
素材	-11322
索道	-11323
纠正	-11324
红河	-11325
级的	-11326
经商	-11327
经销	-11328
给他	-11329
维系	-11330
编年	-11331
缺少	-11332
罗拉	-11333
罗曼	-11334
美人	-11335
美的	-11336
羽毛	-11337
者在	-11338
而为	-11339
而治	-11340
耶稣	-11341
聂耳	-11342
职员	-11343
职责	-11344
联结	-11345
胡风	-11346
自发	-11347
自愿	-11348
自旋	-11349
航行	-11350
艰难	-11351
花旗	-11352
菜和	-11353
菲尔	-11354
萨拉	-11355
落叶	-11356
著有	-11357
著重	-11358
蚩尤	-11359
蛋白	-11360
螺旋	-11361
装饰	-11362
襄公	-11363
西道	-11364
要以	-11365
观赏	-11366
观音	-11367
让人	-11368
让他	-11369
论及	-11370
论语	-11371
评书	-11372
词典	-11373
译名	-11374
话题	-11375
谋生	-11376
象棋	-11377
身亡	-11378
转为	-11379
较短	-11380
较长	-11381
辖下	-11382
辣椒	-11383
边区	-11384
辽西	-11385
达赖	-11386
迅猛	-11387
迎来	-11388
近百	-11389
近郊	-11390
这么	-11391
进军	-11392
远远	-11393
送给	-11394
逃往	-11395
逐年	-11396
递减	-11397
通知	-11398
逼迫	-11399
遗失	-11400
部件	-11401
鄂温	-11402
酒吧	-11403
采访	-11404
释出	-11405
里昂	-11406
重农	-11407
重整	-11408
量化	-11409
金银	-11410
金镛	-11411
钢琴	-11412
铜仁	-11413
铜矿	-11414
锡伯	-11415
镜头	-11416
长兴	-11417
队伍	-11418
阳县	-11419
陆海	-11420
降雪	-11421
隋末	-11422
隐喻	-11423
雇佣	-11424
零星	-11425
霍光	-11426
霸权	-11427
面包	-11428
顶峰	-11429
风暴	-11430
风气	-11431
饭店	-11432
饰演	-11433
首任	-11434
首家	-11435
首度	-11436
首歌	-11437
首脑	-11438
马关	-11439
骨架	-11440
高架	-11441
龙城	-11442
龙头	-11443
,-{	-11444
,23	-11445
,50	-11446
-20	-11447
.26	-11448
.7%	-11449
.70	-11450
.73	-11451
128	-11452
2.1	-11453
2.8	-11454
225	-11455
3%。	-11456
386	-11457
4.4	-11458
40%	-11459
6%。	-11460
7%,	-11461
770	-11462
9%,	-11463
DNA	-11464
Fre	-11465
Les	-11466
Min	-11467
Pet	-11468
alk	-11469
ari	-11470
ass	-11471
end	-11472
lex	-11473
min	-11474
ode	-11475
ore	-11476
osh	-11477
que	-11478
}-」	-11479
“-{	-11480
▁On	-11481
▁全省	-11482
▁增长	-11483
▁如果	-11484
▁成长	-11485
▁文学	-11486
▁西方	-11487
▁西藏	-11488
▁计算	-11489
▁语言	-11490
。15	-11491
「」,	-11492
」(《	-11493
一致的	-11494
上运行	-11495
下半旗	-11496
不允许	-11497
不包括	-11498
不属于	-11499
不应该	-11500
与中原	-11501
东海岸	-11502
两税法	-11503
个体的	-11504
个城市	-11505
中亚的	-11506
中医的	-11507
中国还	-11508
中心区	-11509
为主题	-11510
为标准	-11511
为目标	-11512
为背景	-11513
举足轻	-11514
之战中	-11515
之类的	-11516
乒乓球	-11517
九一八	-11518
九龙坡	-11519
也不断	-11520
也同时	-11521
也随之	-11522
二十年	-11523
产业的	-11524
人们对	-11525
亿年前	-11526
什么是	-11527
仅仅是	-11528
今日的	-11529
从中国	-11530
他主张	-11531
他们对	-11532
他指出	-11533
以及其	-11534
以及对	-11535
以色列	-11536
企业和	-11537
会稽郡	-11538
传染病	-11539
伴随著	-11540
元世祖	-11541
先后有	-11542
先进的	-11543
克洛维	-11544
兑美元	-11545
全球的	-11546
全球第	-11547
全运会	-11548
公司和	-11549
内政部	-11550
军事上	-11551
出入境	-11552
分之三	-11553
到北京	-11554
到台湾	-11555
北伐军	-11556
北向南	-11557
十七年	-11558
华夏族	-11559
南部和	-11560
占领的	-11561
卢沟桥	-11562
原地级	-11563
原始的	-11564
参谋长	-11565
反腐败	-11566
发出的	-11567
发动的	-11568
发明的	-11569
发生于	-11570
只爱陌	-11571
可以说	-11572
可统计	-11573
同样是	-11574
后不久	-11575
后成为	-11576
后来又	-11577
周作人	-11578
呼韩邪	-11579
和一些	-11580
和其它	-11581
和文学	-11582
和相关	-11583
哲学上	-11584
唐德宗	-11585
唐昭宗	-11586
唐武宗	-11587
四合院	-11588
四小龙	-11589
国外的	-11590
在一定	-11591
在唐朝	-11592
在没有	-11593
在澳门	-11594
在科学	-11595
在近代	-11596
基础的	-11597
外交部	-11598
多项式	-11599
大屠杀	-11600
大法官	-11601
大联盟	-11602
天文台	-11603
奖得主	-11604
奖最佳	-11605
孟加拉	-11606
学科的	-11607
它可以	-11608
宇宙学	-11609
完美的	-11610
实质上	-11611
宣慰司	-11612
将这些	-11613
少部分	-11614
尤其以	-11615
尽可能	-11616
工业区	-11617
工业和	-11618
工程师	-11619
左上角	-11620
巴黎的	-11621
市中心	-11622
布袋戏	-11623
年以前	-11624
年出版	-11625
年建立	-11626
年日本	-11627
年期间	-11628
年深圳	-11629
年爆发	-11630
年统计	-11631
年通车	-11632
并要求	-11633
广东的	-11634
康熙帝	-11635
建筑群	-11636
开启了	-11637
开始向	-11638
开放的	-11639
张作霖	-11640
张国焘	-11641
张学友	-11642
张学良	-11643
形式化	-11644
征服了	-11645
径流量	-11646
很高的	-11647
性别比	-11648
总体上	-11649
总量的	-11650
意思是	-11651
戏剧的	-11652
战争后	-11653
战役后	-11654
才能够	-11655
投降后	-11656
拍摄的	-11657
据统计	-11658
捷克斯	-11659
排行榜	-11660
推动了	-11661
支持下	-11662
改称为	-11663
文化等	-11664
文字的	-11665
无霜期	-11666
日开始	-11667
日抵达	-11668
日本在	-11669
时间里	-11670
是一位	-11671
是亚洲	-11672
是所有	-11673
是根据	-11674
是现代	-11675
是通过	-11676
暗物质	-11677
月开始	-11678
有些人	-11679
有助于	-11680
本土化	-11681
李党争	-11682
来解决	-11683
杨国忠	-11684
松江府	-11685
正式开	-11686
正式的	-11687
段时间	-11688
每一种	-11689
毛利人	-11690
氢气的	-11691
水电站	-11692
河南的	-11693
沿海的	-11694
法租界	-11695
活动中	-11696
测绘学	-11697
涉及到	-11698
涌现出	-11699
深圳湾	-11700
清康熙	-11701
游戏的	-11702
演变为	-11703
潜在性	-11704
特征是	-11705
现今的	-11706
理性的	-11707
理论是	-11708
生活在	-11709
由中国	-11710
由总统	-11711
由法国	-11712
电视网	-11713
留下的	-11714
百分之	-11715
的一次	-11716
的主导	-11717
的产品	-11718
的人物	-11719
的兴起	-11720
的国王	-11721
的增加	-11722
的天津	-11723
的差异	-11724
的开始	-11725
的开端	-11726
的总统	-11727
的早期	-11728
的有限	-11729
的标志	-11730
的组织	-11731
的统计	-11732
的继承	-11733
的职业	-11734
的行动	-11735
的边界	-11736
的面积	-11737
省市区	-11738
确定的	-11739
私有化	-11740
种植业	-11741
科威特	-11742
穆罕默	-11743
空间及	-11744
立法权	-11745
第二代	-11746
第十二	-11747
组织和	-11748
结构的	-11749
统一了	-11750
继承了	-11751
缩写为	-11752
罗斯福	-11753
罗湖区	-11754
美利坚	-11755
而对于	-11756
而有所	-11757
职人员	-11758
自由化	-11759
至少有	-11760
艺术的	-11761
英租界	-11762
虽然在	-11763
表现为	-11764
规模的	-11765
认为在	-11766
认定的	-11767
许多人	-11768
货运量	-11769
超自然	-11770
越野车	-11771
跨学科	-11772
软体的	-11773
达斡尔	-11774
连续剧	-11775
迪士尼	-11776
通常被	-11777
逻辑学	-11778
部分的	-11779
都有著	-11780
重大的	-11781
金镛城	-11782
铁路的	-11783
银行等	-11784
长期的	-11785
阿拉善	-11786
阿波罗	-11787
集中的	-11788
集合论	-11789
非金属	-11790
革命家	-11791
韩民国	-11792
音乐和	-11793
首歌曲	-11794
马鞍山	-11795
黔东南	-11796
%)、「	-11797
1910	-11798
6000	-11799
IFPI	-11800
Oper	-11801
avid	-11802
ican	-11803
ject	-11804
macs	-11805
mall	-11806
rist	-11807
▁人民币	-11808
▁历史上	-11809
一般而言	-11810
万物有灵	-11811
与东南亚	-11812
与俄罗斯	-11813
世界冠军	-11814
世纪开始	-11815
两岸分治	-11816
中原政权	-11817
中原王朝	-11818
中国革命	-11819
中山大学	-11820
为中国的	-11821
为了解决	-11822
为基础的	-11823
主要研究	-11824
也有一些	-11825
亚历山大	-11826
交通大学	-11827
人民法院	-11828
人民银行	-11829
他的儿子	-11830
他的学生	-11831
代表人物	-11832
但实际上	-11833
元人民币	-11834
免费软件	-11835
全国各地	-11836
其中国家	-11837
其他国家	-11838
其他城市	-11839
冲积平原	-11840
决定性的	-11841
劲歌金曲	-11842
化学元素	-11843
南部地区	-11844
古斯塔夫	-11845
可以作为	-11846
可比价格	-11847
台湾总督	-11848
台湾民主	-11849
叱咤乐坛	-11850
哲学思想	-11851
四分之一	-11852
国旗图案	-11853
地方政府	-11854
地方自治	-11855
城市规划	-11856
城镇人口	-11857
基督徒占	-11858
外资银行	-11859
多个城市	-11860
大学法律	-11861
天主教徒	-11862
如果没有	-11863
对话录中	-11864
属于中等	-11865
工作人员	-11866
已经超过	-11867
希尔伯特	-11868
年代初期	-11869
年的调查	-11870
广受欢迎	-11871
开发开放	-11872
总体规划	-11873
成为一种	-11874
成为台湾	-11875
拥有世界	-11876
按绝对数	-11877
提供一个	-11878
政府官员	-11879
政府机关	-11880
政治制度	-11881
政治学的	-11882
政治改革	-11883
数据显示	-11884
景气循环	-11885
最后一次	-11886
有组织的	-11887
权力斗争	-11888
根据统计	-11889
森林公园	-11890
民主集中	-11891
民生主义	-11892
民用机场	-11893
江南地区	-11894
没有任何	-11895
法国人的	-11896
洋务运动	-11897
活动场所	-11898
淡水资源	-11899
深远影响	-11900
牛李党争	-11901
特色条目	-11902
独尊儒术	-11903
生态环境	-11904
生态系统	-11905
电脑程式	-11906
盟军部队	-11907
社会变迁	-11908
第二大的	-11909
粮食产量	-11910
经济体制	-11911
经济作物	-11912
编写博客	-11913
美国本土	-11914
美国联邦	-11915
耕地面积	-11916
自然现象	-11917
著名的有	-11918
规模最大	-11919
言论自由	-11920
计划单列	-11921
计算理论	-11922
超级联赛	-11923
选举人票	-11924
重大影响	-11925
铁路枢纽	-11926
销售收入	-11927
间的关系	-11928
降水量的	-11929
非常重要	-11930
领先地位	-11931
黄巢之乱	-11932
黄帝内经	-11933
黔江地区	-11934
,1978	-11935
,1988	-11936
,1990	-11937
,1995	-11938
,2003	-11939
ement	-11940
ovell	-11941
▁1946	-11942
▁2002	-11943
。1931	-11944
。1933	-11945
。1941	-11946
。1944	-11947
。1947	-11948
。1953	-11949
。1954	-11950
。1976	-11951
。1987	-11952
。1993	-11953
。1994	-11954
万平方千米	-11955
东印度公司	-11956
个少数民族	-11957
临时参议院	-11958
主流经济学	-11959
加拿大国旗	-11960
只爱陌生人	-11961
国旗护卫队	-11962
委员会主席	-11963
安东都护府	-11964
年同期增长	-11965
年度最畅销	-11966
广泛使用的	-11967
心理学研究	-11968
总和生育率	-11969
时间的推移	-11970
杀伤性武器	-11971
每平方公里	-11972
环境地理学	-11973
离岸人民币	-11974
粒子物理学	-11975
经济最发达	-11976
维基百科其	-11977
苏格拉底的	-11978
藏族自治州	-11979
这一时期的	-11980
进一步发展	-11981
道教和佛教	-11982
郑和下西洋	-11983
重庆直辖市	-11984
重要的角色	-11985
香港和澳门	-11986
▁知名团体有	-11987
与中国国民党	-11988
世界上最早的	-11989
世界文化遗产	-11990
中国东北地区	-11991
占有重要地位	-11992
年的一项调查	-11993
捷克斯洛伐克	-11994
改革开放以来	-11995
是阿尔巴尼亚	-11996
本地生产总值	-11997
严重急性呼吸道	-11998
是世界上最大的	-11999
的人口是基督徒	-12000
▁formula	-12001
和中华人民共和国	-12002
新疆维吾尔自治区	-12003
Microsoft	-12004
中国共产主义青年团	-12005
第六次全国人口普查	-12006
年夏季奥林匹克运动会	-12007
中国共产党中央委员会主席	-12008
的人口无宗教或信奉中国民间宗教	-12009
4%	-12010
:;	-12011
="	-12012
BI	-12013
DE	-12014
DF	-12015
HT	-12016
KB	-12017
LL	-12018
NP	-12019
Qu	-12020
RA	-12021
SE	-12022
SU	-12023
Si	-12024
TA	-12025
TO	-12026
TV	-12027
WE	-12028
_3	-12029
_8	-12030
cc	-12031
ew	-12032
ld	-12033
mm	-12034
▁)	-12035
▁1	-12036
▁h	-12037
▁其	-12038
▁水	-12039
。)	-12040
』,	-12041
一战	-12042
一边	-12043
七大	-12044
万余	-12045
三轮	-12046
三镇	-12047
上一	-12048
上京	-12049
上台	-12050
不尽	-12051
不开	-12052
不振	-12053
不明	-12054
不易	-12055
不被	-12056
与王	-12057
东县	-12058
东渡	-12059
东线	-12060
东营	-12061
两届	-12062
两座	-12063
两翼	-12064
中以	-12065
中性	-12066
中级	-12067
丰沛	-12068
临江	-12069
丹东	-12070
为本	-12071
丽的	-12072
举重	-12073
之作	-12074
也让	-12075
书城	-12076
了以	-12077
争霸	-12078
事后	-12079
于世	-12080
于前	-12081
五颗	-12082
交替	-12083
产能	-12084
京畿	-12085
亲王	-12086
人事	-12087
人道	-12088
人间	-12089
亿名	-12090
仍为	-12091
仍未	-12092
他被	-12093
仙芝	-12094
代谢	-12095
以内	-12096
以至	-12097
仲氢	-12098
任内	-12099
任正	-12100
会以	-12101
传递	-12102
伴随	-12103
伽马	-12104
体和	-12105
佛山	-12106
作了	-12107
使人	-12108
使者	-12109
供奉	-12110
便已	-12111
便能	-12112
俄军	-12113
借款	-12114
借用	-12115
假期	-12116
偏差	-12117
做到	-12118
偶尔	-12119
傈僳	-12120
僧人	-12121
元老	-12122
充沛	-12123
先祖	-12124
光照	-12125
克的	-12126
克雷	-12127
免疫	-12128
兖州	-12129
党派	-12130
党章	-12131
入围	-12132
全权	-12133
八部	-12134
六月	-12135
兴办	-12136
兼具	-12137
军权	-12138
军校	-12139
农田	-12140
冯特	-12141
冷却	-12142
几天	-12143
划为	-12144
列屿	-12145
刘伯	-12146
刘湘	-12147
创下	-12148
到处	-12149
制图	-12150
制药	-12151
刺杀	-12152
前茅	-12153
剑南	-12154
剑英	-12155
加勒	-12156
助理	-12157
勇气	-12158
募款	-12159
勾践	-12160
北岸	-12161
北极	-12162
北欧	-12163
北起	-12164
十个	-12165
十余	-12166
半个	-12167
半年	-12168
华中	-12169
单车	-12170
南明	-12171
博弈	-12172
占了	-12173
卢龙	-12174
印欧	-12175
即以	-12176
即可	-12177
压缩	-12178
厌恶	-12179
原体	-12180
原名	-12181
参数	-12182
反之	-12183
反美	-12184
叔父	-12185
取名	-12186
受伤	-12187
变数	-12188
可在	-12189
可是	-12190
可观	-12191
各方	-12192
同学	-12193
名城	-12194
后为	-12195
后以	-12196
后在	-12197
后续	-12198
否决	-12199
吴三	-12200
和华	-12201
和县	-12202
和在	-12203
和外	-12204
和最	-12205
和林	-12206
咸阳	-12207
唐时	-12208
商报	-12209
嘉义	-12210
器乐	-12211
器的	-12212
因特	-12213
围困	-12214
国为	-12215
国人	-12216
国学	-12217
国界	-12218
国营	-12219
土司	-12220
圣殿	-12221
在外	-12222
地壳	-12223
均被	-12224
坎德	-12225
境界	-12226
增大	-12227
声波	-12228
处在	-12229
复置	-12230
外患	-12231
多所	-12232
夜市	-12233
大人	-12234
大唐	-12235
大庆	-12236
大沽	-12237
大碟	-12238
大胆	-12239
大脑	-12240
大豆	-12241
大选	-12242
大钊	-12243
天兴	-12244
天的	-12245
太基	-12246
奉系	-12247
奖牌	-12248
妨碍	-12249
孔庙	-12250
字符	-12251
字身	-12252
孙于	-12253
孙眉	-12254
孤立	-12255
学前	-12256
学园	-12257
学门	-12258
宁采	-12259
守恒	-12260
官办	-12261
定公	-12262
宜昌	-12263
实权	-12264
审议	-12265
宫殿	-12266
宫观	-12267
家汇	-12268
家里	-12269
宽约	-12270
寓所	-12271
对内	-12272
封国	-12273
封臣	-12274
小康	-12275
尤以	-12276
就已	-12277
尸体	-12278
尼派	-12279
屡次	-12280
山戎	-12281
巅峰	-12282
州区	-12283
已无	-12284
巴巴	-12285
布告	-12286
带回	-12287
常规	-12288
平叛	-12289
年李	-12290
年派	-12291
年秋	-12292
并从	-12293
并把	-12294
并让	-12295
庆典	-12296
底下	-12297
废掉	-12298
延吉	-12299
建城	-12300
建材	-12301
开播	-12302
张掖	-12303
弥补	-12304
归还	-12305
彩陶	-12306
彭德	-12307
影戏	-12308
彼得	-12309
很好	-12310
很有	-12311
徒刑	-12312
得多	-12313
得票	-12314
必需	-12315
性及	-12316
总的	-12317
恐惧	-12318
惨案	-12319
感受	-12320
慕容	-12321
戈特	-12322
成是	-12323
成汉	-12324
或其	-12325
战前	-12326
战士	-12327
所做	-12328
所城	-12329
所示	-12330
扁鹊	-12331
才被	-12332
打开	-12333
报刊	-12334
拉德	-12335
拉萨	-12336
招待	-12337
拳击	-12338
损害	-12339
换成	-12340
接着	-12341
推导	-12342
推断	-12343
摔跤	-12344
摩尔	-12345
摩尼	-12346
支撑	-12347
收到	-12348
收益	-12349
改元	-12350
改回	-12351
改成	-12352
改设	-12353
政教	-12354
故地	-12355
效用	-12356
效能	-12357
教宗	-12358
教材	-12359
教等	-12360
文昌	-12361
断绝	-12362
斯塔	-12363
斯蒂	-12364
新民	-12365
新界	-12366
无效	-12367
无数	-12368
无权	-12369
无氧	-12370
无需	-12371
既是	-12372
既然	-12373
日新	-12374
时长	-12375
昆仑	-12376
昔日	-12377
星旗	-12378
星表	-12379
昭王	-12380
是正	-12381
普尔	-12382
智冠	-12383
智力	-12384
暗示	-12385
更动	-12386
曾联	-12387
月为	-12388
月内	-12389
有名	-12390
有约	-12391
有近	-12392
服役	-12393
服用	-12394
本名	-12395
本性	-12396
本田	-12397
本部	-12398
机和	-12399
机能	-12400
权势	-12401
李含	-12402
李怀	-12403
李氏	-12404
村庄	-12405
来讲	-12406
构建	-12407
林寺	-12408
林立	-12409
标签	-12410
核电	-12411
核能	-12412
根源	-12413
格鲁	-12414
桂南	-12415
梅艳	-12416
棋子	-12417
棋盘	-12418
棕壤	-12419
楼为	-12420
概括	-12421
榜首	-12422
歌迷	-12423
止于	-12424
此事	-12425
武警	-12426
死因	-12427
每次	-12428
比去	-12429
比喻	-12430
毫无	-12431
民选	-12432
气功	-12433
水上	-12434
永吉	-12435
汇合	-12436
汛期	-12437
汝南	-12438
汝阴	-12439
江州	-12440
沈钧	-12441
沉重	-12442
没收	-12443
治丧	-12444
沿河	-12445
沿著	-12446
法王	-12447
法系	-12448
波尔	-12449
泰奥	-12450
派员	-12451
流长	-12452
浮躁	-12453
海运	-12454
海陆	-12455
淄博	-12456
淞沪	-12457
深度	-12458
清晰	-12459
渗透	-12460
湖水	-12461
湘语	-12462
源远	-12463
滑稽	-12464
潮流	-12465
潮湿	-12466
激发	-12467
火药	-12468
灵公	-12469
灵顿	-12470
焚毁	-12471
照明	-12472
煽动	-12473
物产	-12474
物流	-12475
牲畜	-12476
王李	-12477
玩家	-12478
环路	-12479
珠崖	-12480
理会	-12481
琼州	-12482
瑞金	-12483
瑶族	-12484
生下	-12485
生前	-12486
用兵	-12487
用词	-12488
田地	-12489
电动	-12490
画派	-12491
疑似	-12492
白兰	-12493
白族	-12494
白莲	-12495
白银	-12496
百余	-12497
百济	-12498
的低	-12499
的汉	-12500
的的	-12501
皇位	-12502
盐铁	-12503
直播	-12504
直沽	-12505
直立	-12506
直译	-12507
省界	-12508
看不	-12509
短短	-12510
矿床	-12511
破裂	-12512
社交	-12513
私家	-12514
科尔	-12515
科教	-12516
科西	-12517
租借	-12518
秦末	-12519
稻米	-12520
窗口	-12521
窦唯	-12522
立陶	-12523
等五	-12524
等在	-12525
篡位	-12526
粤东	-12527
粤西	-12528
紫外	-12529
红巾	-12530
红磡	-12531
练习	-12532
终身	-12533
绕城	-12534
维京	-12535
绵羊	-12536
编号	-12537
编撰	-12538
编纂	-12539
缺点	-12540
罗德	-12541
罪行	-12542
羊肉	-12543
群和	-12544
而与	-12545
而又	-12546
而死	-12547
聘请	-12548
肥沃	-12549
育成	-12550
自信	-12551
至第	-12552
航站	-12553
节俭	-12554
节等	-12555
花莲	-12556
苏区	-12557
草甸	-12558
荣获	-12559
药品	-12560
获利	-12561
营口	-12562
葬于	-12563
蒙德	-12564
蔡锷	-12565
虚假	-12566
蜀汉	-12567
蝴蝶	-12568
血液	-12569
衣冠	-12570
表决	-12571
表态	-12572
西侧	-12573
西西	-12574
西高	-12575
要道	-12576
见解	-12577
视频	-12578
譬如	-12579
计量	-12580
让位	-12581
讲师	-12582
讲武	-12583
设想	-12584
评审	-12585
诉诸	-12586
诏命	-12587
试点	-12588
该书	-12589
误解	-12590
说文	-12591
请愿	-12592
诽谤	-12593
调控	-12594
赔偿	-12595
赞同	-12596
赣江	-12597
赤字	-12598
起飞	-12599
路径	-12600
路德	-12601
路网	-12602
转运	-12603
轮渡	-12604
载体	-12605
辽北	-12606
辽国	-12607
辽阳	-12608
达夫	-12609
过的	-12610
迎接	-12611
运量	-12612
这与	-12613
这位	-12614
进修	-12615
违法	-12616
违背	-12617
适宜	-12618
逃离	-12619
通电	-12620
通达	-12621
邦联	-12622
邮轮	-12623
邯郸	-12624
郊野	-12625
部位	-12626
都曾	-12627
释放	-12628
里尼	-12629
金代	-12630
金城	-12631
金额	-12632
长尾	-12633
闽语	-12634
阎锡	-12635
防火	-12636
阿飞	-12637
降下	-12638
隐私	-12639
隔海	-12640
难度	-12641
雇主	-12642
雕版	-12643
雨水	-12644
露出	-12645
靖康	-12646
靖雯	-12647
面上	-12648
领军	-12649
颗小	-12650
额尔	-12651
风潮	-12652
饱和	-12653
首创	-12654
首部	-12655
首页	-12656
马可	-12657
驱除	-12658
驻华	-12659
骑兵	-12660
骚乱	-12661
高官	-12662
鸭绿	-12663
黄龙	-12664
鼓吹	-12665
龙华	-12666
,),	-12667
,11	-12668
,22	-12669
-11	-12670
-16	-12671
.01	-12672
.04	-12673
.12	-12674
.18	-12675
.24	-12676
.27	-12677
.53	-12678
.57	-12679
.58	-12680
.61	-12681
.67	-12682
.91	-12683
.97	-12684
1%。	-12685
114	-12686
158	-12687
2,0	-12688
2,6	-12689
214	-12690
251	-12691
256	-12692
2</	-12693
3.6	-12694
5.5	-12695
550	-12696
75%	-12697
API	-12698
BBC	-12699
ISO	-12700
Nor	-12701
RNA	-12702
_10	-12703
_55	-12704
arg	-12705
ast	-12706
ber	-12707
com	-12708
ens	-12709
ick	-12710
ile	-12711
ism	-12712
lie	-12713
old	-12714
ome	-12715
ook	-12716
oop	-12717
ric	-12718
rit	-12719
son	-12720
vol	-12721
yes	-12722
▁但是	-12723
▁位于	-12724
▁元朝	-12725
▁同年	-12726
▁因此	-12727
▁宋朝	-12728
▁当时	-12729
▁教育	-12730
▁甘肃	-12731
▁西汉	-12732
▁这些	-12733
▁青海	-12734
▁香港	-12735
。14	-12736
一国两	-12737
一直为	-12738
万吨级	-12739
三角形	-12740
不仅是	-12741
不会有	-12742
不使用	-12743
不只是	-12744
与匈奴	-12745
与吐蕃	-12746
与实验	-12747
与欧洲	-12748
与英国	-12749
专门的	-12750
丘陵和	-12751
东三省	-12752
两大类	-12753
两者在	-12754
个街道	-12755
中医师	-12756
中国也	-12757
中小学	-12758
中扮演	-12759
中排名	-12760
中间价	-12761
丹尼尔	-12762
为中央	-12763
为国歌	-12764
为太子	-12765
为最大	-12766
义和团	-12767
也使得	-12768
也使用	-12769
也包含	-12770
也因为	-12771
也得到	-12772
也无法	-12773
也较为	-12774
了一篇	-12775
了当时	-12776
二人转	-12777
于广州	-12778
五星级	-12779
交易的	-12780
人以及	-12781
人们的	-12782
人员的	-12783
今浙江	-12784
他自己	-12785
以前的	-12786
以北京	-12787
以对抗	-12788
以纪念	-12789
以解决	-12790
以达到	-12791
企业的	-12792
优秀的	-12793
会使用	-12794
但因为	-12795
体现出	-12796
体系中	-12797
余万人	-12798
保育类	-12799
修建的	-12800
儒家的	-12801
兆美元	-12802
入海口	-12803
全国性	-12804
其中最	-12805
农业和	-12806
决定在	-12807
决定的	-12808
决定论	-12809
准确地	-12810
几乎全	-12811
出色的	-12812
分别于	-12813
分别在	-12814
分析的	-12815
则称为	-12816
创作了	-12817
创办于	-12818
利可汗	-12819
办公厅	-12820
加勒比	-12821
动物和	-12822
北碚市	-12823
北运河	-12824
区域性	-12825
十五年	-12826
华人的	-12827
占人口	-12828
占领区	-12829
即位后	-12830
即使是	-12831
卷入了	-12832
原先的	-12833
及文化	-12834
及日本	-12835
及社会	-12836
反映了	-12837
发展中	-12838
发展成	-12839
可以以	-12840
可以对	-12841
可能在	-12842
台南市	-12843
叶剑英	-12844
号线和	-12845
各民族	-12846
同时在	-12847
同时期	-12848
同时还	-12849
后来被	-12850
吸收了	-12851
周武王	-12852
和化学	-12853
和北京	-12854
和台湾	-12855
和工作	-12856
和方法	-12857
和重庆	-12858
哥伦布	-12859
唐高祖	-12860
喀尔喀	-12861
因为其	-12862
团体的	-12863
国家都	-12864
在上都	-12865
在之后	-12866
在他的	-12867
在学校	-12868
在此时	-12869
在浙江	-12870
在湖北	-12871
在研究	-12872
在苏联	-12873
在语言	-12874
在这种	-12875
场所有	-12876
埃里克	-12877
基本法	-12878
外国人	-12879
多媒体	-12880
多样化	-12881
大会上	-12882
大地震	-12883
大学堂	-12884
大学等	-12885
大数据	-12886
天后宫	-12887
失去了	-12888
奉天省	-12889
奢侈品	-12890
如果有	-12891
孙抵达	-12892
孙达成	-12893
学校的	-12894
学生会	-12895
宁采臣	-12896
宇宙中	-12897
安德鲁	-12898
定位为	-12899
宝安区	-12900
宣布将	-12901
对世界	-12902
对国家	-12903
对称性	-12904
对美国	-12905
就不能	-12906
尼泊尔	-12907
局限于	-12908
山东有	-12909
岁以上	-12910
已形成	-12911
带动了	-12912
常常被	-12913
年举办	-12914
年全年	-12915
年北京	-12916
年成为	-12917
年正式	-12918
并持续	-12919
应天府	-12920
府兵制	-12921
座城市	-12922
建筑物	-12923
开始后	-12924
引起了	-12925
当中的	-12926
当地人	-12927
形式上	-12928
彭德怀	-12929
影响到	-12930
徐家汇	-12931
必须要	-12932
志愿者	-12933
总销量	-12934
我们所	-12935
截止到	-12936
房地产	-12937
所取代	-12938
所组成	-12939
所说的	-12940
技术和	-12941
拥有的	-12942
排名中	-12943
探测器	-12944
推出的	-12945
推翻了	-12946
推进到	-12947
描述为	-12948
描述了	-12949
提供给	-12950
教职工	-12951
数千年	-12952
文化上	-12953
文明和	-12954
斯坦福	-12955
斯宾塞	-12956
斯库台	-12957
新兴的	-12958
新安县	-12959
新宪法	-12960
新文化	-12961
新文学	-12962
新材料	-12963
新疆省	-12964
新能源	-12965
日公布	-12966
日成立	-12967
日结束	-12968
星系团	-12969
是为汉	-12970
是北京	-12971
是否是	-12972
是对于	-12973
智能的	-12974
曾联松	-12975
最古老	-12976
最终核	-12977
月日本	-12978
有两种	-12979
有以下	-12980
有利于	-12981
有时也	-12982
机械化	-12983
李亚鹏	-12984
材料的	-12985
条件的	-12986
果子狸	-12987
查理曼	-12988
栖息地	-12989
梅艳芳	-12990
检察院	-12991
欧洲人	-12992
正确性	-12993
比上年	-12994
民众的	-12995
氢化物	-12996
氧化碳	-12997
水产品	-12998
汉字的	-12999
河流有	-13000
法国在	-13001
波尔多	-13002
注重于	-13003
活跃的	-13004
海军的	-13005
消灭了	-13006
温家宝	-13007
港澳台	-13008
犹太人	-13009
独立于	-13010
现有的	-13011
生物圈	-13012
由于其	-13013
由天津	-13014
电气化	-13015
界人士	-13016
的不满	-13017
的交通	-13018
的人工	-13019
的人格	-13020
的任务	-13021
的冲突	-13022
的决议	-13023
的分支	-13024
的医学	-13025
的原则	-13026
的地图	-13027
的子域	-13028
的对话	-13029
的戏剧	-13030
的措施	-13031
的攻势	-13032
的整体	-13033
的普及	-13034
的普遍	-13035
的正式	-13036
的流行	-13037
的电子	-13038
的看法	-13039
的联系	-13040
的胜利	-13041
的规则	-13042
的资源	-13043
的进步	-13044
的部队	-13045
的重庆	-13046
的集合	-13047
的风格	-13048
皇太极	-13049
相反地	-13050
相反的	-13051
相对地	-13052
省辖市	-13053
省部级	-13054
社会中	-13055
秘书长	-13056
立陶宛	-13057
第十八	-13058
第四大	-13059
等不同	-13060
等地方	-13061
等多个	-13062
等宗教	-13063
等方式	-13064
约瑟夫	-13065
纪录片	-13066
组织法	-13067
经济大	-13068
经验的	-13069
罗马人	-13070
而受到	-13071
而没有	-13072
而闻名	-13073
聚居区	-13074
聚焦于	-13075
股份制	-13076
能够在	-13077
能量的	-13078
范围的	-13079
荷兰人	-13080
著作的	-13081
蒙古军	-13082
蛋白质	-13083
融入了	-13084
融合了	-13085
西部和	-13086
观察和	-13087
规定的	-13088
解决了	-13089
认为这	-13090
认识到	-13091
认识论	-13092
记载的	-13093
评论家	-13094
说明了	-13095
调整为	-13096
贝加尔	-13097
财产权	-13098
质量的	-13099
辽阔的	-13100
运筹学	-13101
运行于	-13102
还可以	-13103
还设有	-13104
迦太基	-13105
道德的	-13106
里程碑	-13107
针叶林	-13108
针灸师	-13109
长安城	-13110
长江中	-13111
闻名的	-13112
防城港	-13113
随后在	-13114
音乐厅	-13115
顺天府	-13116
马克斯	-13117
高原和	-13118
.0%,	-13119
.4%。	-13120
1830	-13121
1898	-13122
1908	-13123
1917	-13124
1924	-13125
1938	-13126
1964	-13127
1981	-13128
30%。	-13129
9.8%	-13130
Card	-13131
LGPL	-13132
SPVA	-13133
ache	-13134
hell	-13135
ited	-13136
itut	-13137
orld	-13138
roup	-13139
▁上海市	-13140
▁中国的	-13141
▁吉林省	-13142
▁安徽省	-13143
▁最早的	-13144
▁海南省	-13145
▁湖北省	-13146
▁物理学	-13147
▁秦始皇	-13148
▁辽宁省	-13149
▁重庆市	-13150
一直保持	-13151
上海本地	-13152
不断增加	-13153
世纪下半	-13154
东南亚的	-13155
两国关系	-13156
两岸关系	-13157
中使用的	-13158
中原文化	-13159
中国版图	-13160
中国现代	-13161
中央领导	-13162
为主体的	-13163
主要使用	-13164
主要来自	-13165
九二共识	-13166
九龙坡区	-13167
也是一个	-13168
五胡乱华	-13169
亚洲地区	-13170
产业结构	-13171
人口达到	-13172
人民医院	-13173
人民币对	-13174
代数整数	-13175
代表中国	-13176
代表会议	-13177
仰韶文化	-13178
会议通过	-13179
伪满洲国	-13180
伽马射线	-13181
位列全国	-13182
作为一种	-13183
作为中国	-13184
作为主要	-13185
使用者的	-13186
先秦时期	-13187
公共场合	-13188
公共租界	-13189
公立学校	-13190
其他地方	-13191
其他宗教	-13192
冀鲁官话	-13193
内核结构	-13194
农业经济	-13195
凯尔特人	-13196
分别增长	-13197
分支机构	-13198
分支领域	-13199
初步核算	-13200
动态链接	-13201
北京政府	-13202
医疗保健	-13203
医疗服务	-13204
十分之一	-13205
南山区的	-13206
历史记录	-13207
原因关系	-13208
县通高速	-13209
又被称为	-13210
友好关系	-13211
发达地区	-13212
可以根据	-13213
可以证明	-13214
各式各样	-13215
同盟国的	-13216
周年纪念	-13217
四大文明	-13218
因果关系	-13219
国家之一	-13220
国家安全	-13221
国民议会	-13222
国际联盟	-13223
国际货币	-13224
在中世纪	-13225
在位期间	-13226
在内蒙古	-13227
在政治上	-13228
在联合国	-13229
地区之一	-13230
地处中国	-13231
地方各级	-13232
地质公园	-13233
坎城影展	-13234
基辅罗斯	-13235
基金组织	-13236
大力发展	-13237
大自然的	-13238
大陆地区	-13239
天主教和	-13240
太平公主	-13241
奥古斯丁	-13242
学校教育	-13243
安全机制	-13244
定量研究	-13245
宣布成立	-13246
密切相关	-13247
小亚细亚	-13248
展开攻势	-13249
岁人口为	-13250
工人阶级	-13251
工程技术	-13252
平均寿命	-13253
平行四边	-13254
年代早期	-13255
年出版的	-13256
年的历史	-13257
年的统计	-13258
广东省内	-13259
开始尝试	-13260
开始进入	-13261
开源软件	-13262
心理活动	-13263
总量达到	-13264
意义上的	-13265
戏剧表演	-13266
成为美国	-13267
成都平原	-13268
或多或少	-13269
所辖区域	-13270
拉丁美洲	-13271
政府开始	-13272
政府部门	-13273
教育机构	-13274
数值模式	-13275
数学模型	-13276
新闻媒体	-13277
时至今日	-13278
是全世界	-13279
是错误的	-13280
普遍认为	-13281
智能手机	-13282
最伟大的	-13283
最喜爱的	-13284
最大河流	-13285
有一定的	-13286
有不同的	-13287
有轨电车	-13288
权力机关	-13289
正式开始	-13290
武装力量	-13291
死亡人数	-13292
毛入学率	-13293
民间音乐	-13294
水利工程	-13295
法兰克人	-13296
注册用户	-13297
注意的是	-13298
流行歌曲	-13299
浪漫主义	-13300
源远流长	-13301
演绎作品	-13302
爱奥尼亚	-13303
独立运动	-13304
理性选择	-13305
生物环境	-13306
电视公司	-13307
目的在于	-13308
知识份子	-13309
石油危机	-13310
社会理论	-13311
社会秩序	-13312
福田区的	-13313
科研机构	-13314
程式设计	-13315
等离子体	-13316
约占全省	-13317
纪律检查	-13318
经济政策	-13319
美国宪法	-13320
美国独立	-13321
考古学家	-13322
联合国的	-13323
自然遗产	-13324
英国伦敦	-13325
行政机构	-13326
行政管理	-13327
被视为是	-13328
西医书院	-13329
西高东低	-13330
计算方法	-13331
许多国家	-13332
货币政策	-13333
赛局理论	-13334
路易十六	-13335
软件工程	-13336
软件开发	-13337
辨证论治	-13338
迄今为止	-13339
过程中的	-13340
还有许多	-13341
这种情况	-13342
逐渐形成	-13343
逐渐恢复	-13344
重庆市辖	-13345
阶级斗争	-13346
阿飞正传	-13347
集水面积	-13348
饮食习惯	-13349
马祖列岛	-13350
高速发展	-13351
黄土高原	-13352
,2011	-13353
10000	-13354
4,000	-13355
David	-13356
Intel	-13357
Media	-13358
omput	-13359
▁1951	-13360
▁1978	-13361
▁1979	-13362
▁1983	-13363
▁1987	-13364
▁1996	-13365
▁1997	-13366
▁GPLv	-13367
。1860	-13368
。1903	-13369
。1904	-13370
。1909	-13371
。1924	-13372
。1934	-13373
。1951	-13374
。1955	-13375
。1995	-13376
一个产品的	-13377
一级行政区	-13378
世纪上半叶	-13379
亚里斯多德	-13380
京杭大运河	-13381
公共图书馆	-13382
其他地区的	-13383
内蒙古东部	-13384
印度次大陆	-13385
国际旅游岛	-13386
地方委员会	-13387
安西都护府	-13388
少数民族有	-13389
居全国前列	-13390
嵌入式系统	-13391
巴尔干半岛	-13392
年辛亥革命	-13393
开放原始码	-13394
弱人工智能	-13395
德国和日本	-13396
战争结束后	-13397
执行委员会	-13398
抗战胜利后	-13399
操作系统的	-13400
旅游总收入	-13401
无条件投降	-13402
最终核实数	-13403
最重要的是	-13404
法兰克人的	-13405
法国大革命	-13406
海军陆战队	-13407
狭义相对论	-13408
瓦卢瓦王朝	-13409
由中华民国	-13410
的一个重要	-13411
的军事行动	-13412
的少数民族	-13413
的有限扩张	-13414
第五共和国	-13415
管理委员会	-13416
红磡体育馆	-13417
老工业基地	-13418
联合国会员	-13419
行政委员会	-13420
行政院院长	-13421
都有自己的	-13422
野生动植物	-13423
银行间即期	-13424
高科技产业	-13425
鸦片战争后	-13426
Novell	-13427
stitut	-13428
中华民国国语	-13429
中国共产党党	-13430
京沪高速铁路	-13431
人均生产总值	-13432
人民币兑美元	-13433
全国平均水平	-13434
十大劲歌金曲	-13435
各省级行政区	-13436
国内生产毛额	-13437
国立台湾大学	-13438
地方代表大会	-13439
按绝对数比较	-13440
摩托车制造商	-13441
旅游资源丰富	-13442
社会主义改造	-13443
神圣罗马帝国	-13444
维基百科网站	-13445
网路百科全书	-13446
▁States	-13447
▁阿那克西曼德	-13448
中国共产党开始	-13449
人均可支配收入	-13450
国务院批准撤销	-13451
教育程度人口为	-13452
最佳男主角提名	-13453
荷兰东印度公司	-13454
Netscape	-13455
国际货币基金组织	-13456
在中华人民共和国	-13457
届全国人大常委会	-13458
届香港电影金像奖	-13459
的人口有祖先崇拜	-13460
辽宁省人民委员会	-13461
MediaWiki	-13462
夏季奥林匹克运动会	-13463
▁广西壮族自治区境内	-13464
▁JavaScript	-13465
处全国重点文物保护单位	-13466
International	-13467
!」	-13468
)”	-13469
-2	-13470
07	-13471
1°	-13472
2、	-13473
;“	-13474
?”	-13475
AA	-13476
Co	-13477
Cr	-13478
EP	-13479
IE	-13480
IP	-13481
La	-13482
Ma	-13483
Mo	-13484
OM	-13485
QL	-13486
RM	-13487
Sa	-13488
Se	-13489
Sp	-13490
Th	-13491
ks	-13492
ly	-13493
oc	-13494
sy	-13495
ue	-13496
xx	-13497
‰。	-13498
′-	-13499
▁6	-13500
▁g	-13501
▁本	-13502
▁由	-13503
、《	-13504
。,	-13505
一为	-13506
一人	-13507
一星	-13508
一期	-13509
一水	-13510
一职	-13511
一贯	-13512
一跃	-13513
丁堡	-13514
七国	-13515
万亿	-13516
万县	-13517
万至	-13518
三届	-13519
三星	-13520
三点	-13521
三等	-13522
三类	-13523
三藩	-13524
三部	-13525
三里	-13526
三面	-13527
上和	-13528
上官	-13529
上榜	-13530
上涨	-13531
下去	-13532
下有	-13533
不具	-13534
不和	-13535
不堪	-13536
不太	-13537
不容	-13538
不幸	-13539
不应	-13540
不当	-13541
不止	-13542
不理	-13543
不等	-13544
不设	-13545
不顾	-13546
与人	-13547
与会	-13548
与西	-13549
与非	-13550
专权	-13551
东乡	-13552
东侧	-13553
丢番	-13554
两极	-13555
两汉	-13556
两路	-13557
两面	-13558
个区	-13559
个数	-13560
中丁	-13561
中专	-13562
中占	-13563
中越	-13564
为中	-13565
举世	-13566
义军	-13567
之列	-13568
之命	-13569
之城	-13570
之最	-13571
之音	-13572
乌坵	-13573
乌梁	-13574
乐园	-13575
乐谱	-13576
乙未	-13577
九州	-13578
也因	-13579
也正	-13580
也由	-13581
书店	-13582
书画	-13583
买卖	-13584
买家	-13585
了对	-13586
争鸣	-13587
二部	-13588
云寺	-13589
云集	-13590
互补	-13591
五世	-13592
五经	-13593
亚属	-13594
亚裔	-13595
亚诺	-13596
交恶	-13597
交涉	-13598
交由	-13599
亦于	-13600
亦会	-13601
享誉	-13602
京哈	-13603
亲政	-13604
人则	-13605
人选	-13606
人都	-13607
人际	-13608
人马	-13609
仅剩	-13610
仅存	-13611
仅能	-13612
从上	-13613
从小	-13614
仔戏	-13615
他又	-13616
他和	-13617
他国	-13618
他曾	-13619
他有	-13620
付出	-13621
以图	-13622
以小	-13623
以表	-13624
任免	-13625
企划	-13626
伊士	-13627
伊曼	-13628
优美	-13629
会场	-13630
会展	-13631
会晤	-13632
传世	-13633
伦春	-13634
佛罗	-13635
侗族	-13636
依其	-13637
依存	-13638
依序	-13639
依托	-13640
依附	-13641
信号	-13642
修补	-13643
候补	-13644
借鉴	-13645
值为	-13646
假定	-13647
偏好	-13648
偶像	-13649
僵局	-13650
儿女	-13651
元帝	-13652
元成	-13653
元的	-13654
光大	-13655
光线	-13656
克和	-13657
克林	-13658
免除	-13659
党争	-13660
党政	-13661
党籍	-13662
党纪	-13663
党部	-13664
入党	-13665
入读	-13666
入驻	-13667
全线	-13668
八卦	-13669
八届	-13670
公使	-13671
公务	-13672
公家	-13673
公投	-13674
公私	-13675
兰大	-13676
共通	-13677
关内	-13678
关帝	-13679
兴业	-13680
兴隆	-13681
其与	-13682
其美	-13683
再生	-13684
写出	-13685
军长	-13686
冯国	-13687
冲程	-13688
准许	-13689
减缓	-13690
几千	-13691
凤翔	-13692
出使	-13693
出台	-13694
出品	-13695
出境	-13696
出征	-13697
出逃	-13698
出道	-13699
分界	-13700
分组	-13701
则更	-13702
刚刚	-13703
创用	-13704
利的	-13705
制与	-13706
制备	-13707
前卫	-13708
前所	-13709
前景	-13710
前海	-13711
剥夺	-13712
剧目	-13713
副本	-13714
动摇	-13715
勒密	-13716
包容	-13717
化名	-13718
化率	-13719
北区	-13720
北大	-13721
北接	-13722
北疆	-13723
匹配	-13724
医书	-13725
千禧	-13726
千纪	-13727
千里	-13728
升降	-13729
半导	-13730
单个	-13731
南到	-13732
南征	-13733
南港	-13734
南疆	-13735
南韩	-13736
博爱	-13737
占全	-13738
卫军	-13739
印制	-13740
却在	-13741
原文	-13742
原料	-13743
县为	-13744
参赛	-13745
及至	-13746
变质	-13747
口语	-13748
古国	-13749
古籍	-13750
可信	-13751
可被	-13752
台语	-13753
史的	-13754
右图	-13755
各路	-13756
合会	-13757
吉安	-13758
同乡	-13759
同情	-13760
名声	-13761
后勤	-13762
后备	-13763
后才	-13764
后汉	-13765
后称	-13766
吏治	-13767
君士	-13768
启发	-13769
呐喊	-13770
周的	-13771
和对	-13772
和田	-13773
和第	-13774
和等	-13775
和调	-13776
和高	-13777
哈里	-13778
哪个	-13779
唐国	-13780
唐宋	-13781
商丘	-13782
商讨	-13783
喜好	-13784
喷射	-13785
四条	-13786
因受	-13787
困境	-13788
固球	-13789
国中	-13790
国之	-13791
国事	-13792
国名	-13793
国君	-13794
国画	-13795
图论	-13796
圆周	-13797
土木	-13798
土矿	-13799
土类	-13800
圣经	-13801
在华	-13802
在第	-13803
均可	-13804
堡垒	-13805
塔斯	-13806
塘沽	-13807
增修	-13808
壮大	-13809
声学	-13810
复合	-13811
复国	-13812
复数	-13813
外在	-13814
多由	-13815
大举	-13816
大事	-13817
大有	-13818
大类	-13819
大获	-13820
大街	-13821
大足	-13822
大风	-13823
天象	-13824
天门	-13825
太学	-13826
太康	-13827
夫子	-13828
失传	-13829
夺冠	-13830
好友	-13831
好莱	-13832
始祖	-13833
子孙	-13834
字形	-13835
字旗	-13836
字首	-13837
孙宝	-13838
孙德	-13839
孙膑	-13840
孟子	-13841
学历	-13842
学及	-13843
孩童	-13844
孵化	-13845
宋国	-13846
宗王	-13847
定远	-13848
客车	-13849
宣王	-13850
宣示	-13851
宪政	-13852
家电	-13853
家长	-13854
宿州	-13855
寿春	-13856
寿裳	-13857
射电	-13858
将原	-13859
小于	-13860
少帝	-13861
尔兰	-13862
就以	-13863
就可	-13864
尼采	-13865
层气	-13866
屏蔽	-13867
山川	-13868
山海	-13869
山麓	-13870
岛和	-13871
岛弧	-13872
岷江	-13873
川区	-13874
川黔	-13875
左传	-13876
帆船	-13877
帝喾	-13878
带入	-13879
常绿	-13880
幅员	-13881
平价	-13882
平山	-13883
平日	-13884
平津	-13885
并吞	-13886
广阳	-13887
庄子	-13888
序数	-13889
庙宇	-13890
庶民	-13891
康复	-13892
廉州	-13893
延迟	-13894
延陀	-13895
建置	-13896
开平	-13897
异议	-13898
张亚	-13899
弱势	-13900
弹性	-13901
归于	-13902
彗星	-13903
影星	-13904
征兵	-13905
征讨	-13906
很低	-13907
很广	-13908
微克	-13909
徽派	-13910
必定	-13911
急剧	-13912
总裁	-13913
总计	-13914
总队	-13915
情境	-13916
意外	-13917
感官	-13918
成交	-13919
成人	-13920
成因	-13921
成帝	-13922
我军	-13923
戡乱	-13924
房价	-13925
所含	-13926
所要	-13927
所载	-13928
手册	-13929
手动	-13930
托万	-13931
托斯	-13932
执导	-13933
执笔	-13934
扭转	-13935
承袭	-13936
把它	-13937
把手	-13938
抑制	-13939
抢先	-13940
护国	-13941
护旗	-13942
护送	-13943
拉瓦	-13944
拉罕	-13945
拔斯	-13946
拯救	-13947
持久	-13948
指引	-13949
指派	-13950
按察	-13951
捕捉	-13952
据有	-13953
排在	-13954
探险	-13955
接口	-13956
接见	-13957
接轨	-13958
控股	-13959
提拔	-13960
插件	-13961
搜集	-13962
搭乘	-13963
摘录	-13964
摧毁	-13965
撞球	-13966
收取	-13967
政法	-13968
故而	-13969
救援	-13970
教团	-13971
数年	-13972
整整	-13973
文体	-13974
文公	-13975
斩首	-13976
斯大	-13977
斯的	-13978
新政	-13979
方剂	-13980
族裔	-13981
无声	-13982
无常	-13983
日子	-13984
日由	-13985
日被	-13986
早晨	-13987
早餐	-13988
时就	-13989
时所	-13990
时称	-13991
明州	-13992
易于	-13993
映射	-13994
是可	-13995
是被	-13996
显现	-13997
晚会	-13998
晦涩	-13999
晶棺	-14000
暂缓	-14001
暗中	-14002
曲谱	-14003
曲靖	-14004
更好	-14005
更始	-14006
更快	-14007
曹丕	-14008
曾于	-14009
曾以	-14010
曾任	-14011
最北	-14012
月刊	-14013
月和	-14014
月被	-14015
有很	-14016
有用	-14017
有高	-14018
朝贡	-14019
未知	-14020
未被	-14021
本位	-14022
机密	-14023
李岗	-14024
李白	-14025
村落	-14026
杨衢	-14027
极低	-14028
果树	-14029
架设	-14030
查询	-14031
柯尔	-14032
树立	-14033
格物	-14034
桂柳	-14035
桑格	-14036
桓帝	-14037
椭圆	-14038
榕树	-14039
模范	-14040
横断	-14041
欧阳	-14042
欧陆	-14043
款式	-14044
步入	-14045
武清	-14046
武陵	-14047
武隆	-14048
死伤	-14049
毕节	-14050
气氛	-14051
水河	-14052
水深	-14053
永徽	-14054
求学	-14055
汉初	-14056
汉国	-14057
汕尾	-14058
江户	-14059
沃斯	-14060
河是	-14061
河的	-14062
河道	-14063
油料	-14064
治水	-14065
波动	-14066
泸州	-14067
洋流	-14068
洛矶	-14069
洪秀	-14070
派别	-14071
流水	-14072
浓厚	-14073
浓郁	-14074
海防	-14075
消亡	-14076
淄青	-14077
淝河	-14078
混战	-14079
清单	-14080
清算	-14081
渐趋	-14082
渔猎	-14083
渡江	-14084
湖和	-14085
湿气	-14086
源码	-14087
滇池	-14088
滥用	-14089
演算	-14090
潼关	-14091
澄清	-14092
濒危	-14093
火星	-14094
灯谜	-14095
炎帝	-14096
炎黄	-14097
热潮	-14098
烹调	-14099
烹饪	-14100
爱沙	-14101
牠们	-14102
独占	-14103
猛进	-14104
猪肉	-14105
献帝	-14106
玉器	-14107
环海	-14108
现价	-14109
琼山	-14110
琼崖	-14111
瓦拉	-14112
生徒	-14113
用地	-14114
田径	-14115
甲等	-14116
申报	-14117
画作	-14118
病例	-14119
登台	-14120
登封	-14121
白令	-14122
的两	-14123
的州	-14124
的政	-14125
的红	-14126
的议	-14127
的起	-14128
的非	-14129
皆有	-14130
目中	-14131
相机	-14132
省境	-14133
省委	-14134
看出	-14135
看待	-14136
督办	-14137
督皖	-14138
睦尔	-14139
石墨	-14140
矿路	-14141
礼记	-14142
神州	-14143
祭典	-14144
科院	-14145
移往	-14146
稀土	-14147
稳步	-14148
空降	-14149
窑洞	-14150
立于	-14151
立体	-14152
章党	-14153
章节	-14154
等为	-14155
等新	-14156
等都	-14157
策动	-14158
签约	-14159
算学	-14160
籍的	-14161
粤菜	-14162
精力	-14163
精密	-14164
精通	-14165
糟糕	-14166
索引	-14167
繁华	-14168
繁简	-14169
繁衍	-14170
纠纷	-14171
纪年	-14172
纵谷	-14173
经史	-14174
经学	-14175
结社	-14176
结算	-14177
维森	-14178
绵延	-14179
缓存	-14180
缓解	-14181
编为	-14182
编制	-14183
缺失	-14184
罗亚	-14185
罗素	-14186
羌族	-14187
美援	-14188
考核	-14189
考证	-14190
者有	-14191
而于	-14192
而入	-14193
而将	-14194
而得	-14195
而起	-14196
耶律	-14197
职工	-14198
联想	-14199
肃宗	-14200
肇庆	-14201
肥西	-14202
胡适	-14203
脊椎	-14204
自决	-14205
至关	-14206
至圣	-14207
舆地	-14208
艺文	-14209
若以	-14210
英商	-14211
英里	-14212
范式	-14213
荆楚	-14214
荒漠	-14215
荷马	-14216
获选	-14217
营利	-14218
落差	-14219
著手	-14220
董事	-14221
蓬莱	-14222
薄弱	-14223
虹桥	-14224
蜀国	-14225
蝙蝠	-14226
街车	-14227
被俘	-14228
被打	-14229
襄阳	-14230
西与	-14231
西州	-14232
西拉	-14233
西迁	-14234
观感	-14235
论与	-14236
论题	-14237
评剧	-14238
该地	-14239
该年	-14240
该校	-14241
该省	-14242
语中	-14243
语文	-14244
诸国	-14245
诸葛	-14246
诺尔	-14247
质数	-14248
质料	-14249
费曼	-14250
贾湖	-14251
贾谧	-14252
赞扬	-14253
赣南	-14254
赤水	-14255
赤湾	-14256
赤道	-14257
走上	-14258
赵高	-14259
起到	-14260
越过	-14261
跑道	-14262
跨海	-14263
踏入	-14264
轰动	-14265
轴线	-14266
轻松	-14267
载人	-14268
载入	-14269
较差	-14270
辅佐	-14271
输送	-14272
辖境	-14273
辽金	-14274
达州	-14275
迁居	-14276
过剩	-14277
过往	-14278
过时	-14279
迈向	-14280
运送	-14281
近海	-14282
还能	-14283
这就	-14284
这片	-14285
这让	-14286
远离	-14287
逃到	-14288
透露	-14289
逐出	-14290
通俗	-14291
通勤	-14292
道光	-14293
遵照	-14294
邪恶	-14295
郁症	-14296
郑克	-14297
郑国	-14298
郡和	-14299
都为	-14300
酋长	-14301
配偶	-14302
酸碱	-14303
重型	-14304
重返	-14305
金奖	-14306
金矿	-14307
铜陵	-14308
锐减	-14309
锦江	-14310
镇的	-14311
长老	-14312
门外	-14313
闭幕	-14314
阳甲	-14315
阴山	-14316
阵亡	-14317
阿佩	-14318
阿骨	-14319
陇西	-14320
陈云	-14321
陈淑	-14322
陕甘	-14323
隆基	-14324
隆起	-14325
隋军	-14326
隔阂	-14327
雅族	-14328
集宁	-14329
集散	-14330
雇员	-14331
雒邑	-14332
雨热	-14333
露天	-14334
静态	-14335
面食	-14336
鞑虏	-14337
顶端	-14338
顺宗	-14339
颁行	-14340
预报	-14341
预言	-14342
预设	-14343
颇具	-14344
风靡	-14345
飘扬	-14346
飞速	-14347
首届	-14348
首相	-14349
马上	-14350
马修	-14351
马哈	-14352
马赫	-14353
马里	-14354
驻防	-14355
高压	-14356
高地	-14357
魁北	-14358
鲁斯	-14359
麦克	-14360
麻烦	-14361
黄石	-14362
黑海	-14363
黑色	-14364
鼓动	-14365
(1)	-14366
(60	-14367
)、“	-14368
,15	-14369
.1°	-14370
.29	-14371
.3%	-14372
.38	-14373
.50	-14374
.7°	-14375
.88	-14376
0.3	-14377
0.5	-14378
1.2	-14379
113	-14380
117	-14381
122	-14382
123	-14383
133	-14384
137	-14385
138	-14386
142	-14387
146	-14388
15%	-14389
151	-14390
168	-14391
169	-14392
177	-14393
202	-14394
210	-14395
222	-14396
223	-14397
224	-14398
240	-14399
245	-14400
260	-14401
29°	-14402
4%。	-14403
583	-14404
618	-14405
651	-14406
8.6	-14407
:),	-14408
MIT	-14409
SQL	-14410
You	-14411
ary	-14412
att	-14413
bin	-14414
bit	-14415
enn	-14416
ero	-14417
fox	-14418
ite	-14419
ius	-14420
nal	-14421
one	-14422
org	-14423
osa	-14424
ott	-14425
spe	-14426
weg	-14427
yth	-14428
}-。	-14429
”()	-14430
”。“	-14431
▁Ag	-14432
▁Me	-14433
▁as	-14434
▁is	-14435
▁st	-14436
▁中医	-14437
▁人类	-14438
▁古代	-14439
▁同时	-14440
▁孙文	-14441
▁完成	-14442
▁广西	-14443
▁当代	-14444
▁很多	-14445
▁朱德	-14446
▁民族	-14447
▁氢气	-14448
▁经过	-14449
▁美军	-14450
▁联邦	-14451
▁这个	-14452
、17	-14453
《》(	-14454
《》。	-14455
《》《	-14456
》)。	-14457
「」。	-14458
」()	-14459
一个或	-14460
一个由	-14461
一神论	-14462
一般是	-14463
一般都	-14464
万人口	-14465
三星堆	-14466
上升到	-14467
下一个	-14468
下辖的	-14469
不久就	-14470
不再是	-14471
不同意	-14472
不清楚	-14473
不认同	-14474
不论是	-14475
与国际	-14476
与宗教	-14477
与现代	-14478
与经济	-14479
与越南	-14480
专业化	-14481
丢番图	-14482
个主要	-14483
个地区	-14484
个省份	-14485
个行政	-14486
中国后	-14487
中心和	-14488
中期的	-14489
中纬度	-14490
中药材	-14491
为基准	-14492
为美国	-14493
主航道	-14494
主要在	-14495
乌苏里	-14496
也产生	-14497
也促使	-14498
也受到	-14499
也属于	-14500
也已经	-14501
也拥有	-14502
也陆续	-14503
书法家	-14504
了人类	-14505
事务的	-14506
于上海	-14507
京津冀	-14508
仇士良	-14509
今河北	-14510
介绍了	-14511
仍继续	-14512
代表权	-14513
代表的	-14514
代表着	-14515
代表著	-14516
代表队	-14517
以北为	-14518
以南为	-14519
以美国	-14520
以至于	-14521
以防止	-14522
企业有	-14523
会使得	-14524
会导致	-14525
会影响	-14526
会议员	-14527
传入的	-14528
传播到	-14529
但政府	-14530
但没有	-14531
但目前	-14532
位于今	-14533
佛教的	-14534
作品中	-14535
作品有	-14536
作战的	-14537
作用力	-14538
供应商	-14539
依然是	-14540
便利店	-14541
修建了	-14542
修改和	-14543
做出了	-14544
元成宗	-14545
免费的	-14546
全国有	-14547
公司在	-14548
六盘水	-14549
兵工厂	-14550
其余的	-14551
其子李	-14552
其次为	-14553
具体的	-14554
养生息	-14555
内容是	-14556
军队的	-14557
冯国璋	-14558
决定以	-14559
准确的	-14560
出许多	-14561
分别占	-14562
分布式	-14563
分布有	-14564
分水岭	-14565
分界线	-14566
则属于	-14567
则成为	-14568
则表示	-14569
创办的	-14570
创立于	-14571
利比亚	-14572
到上海	-14573
制作了	-14574
制国家	-14575
制定了	-14576
剩余的	-14577
势力被	-14578
北平市	-14579
医学堂	-14580
十二五	-14581
半总统	-14582
协助下	-14583
协约国	-14584
南京路	-14585
南向北	-14586
南岸区	-14587
南美洲	-14588
博客中	-14589
原子弹	-14590
原子或	-14591
参议会	-14592
及香港	-14593
友好省	-14594
双原子	-14595
双方都	-14596
反对派	-14597
发动机	-14598
发展观	-14599
发生后	-14600
发行商	-14601
变成了	-14602
古代的	-14603
古文明	-14604
另外有	-14605
只有在	-14606
只需要	-14607
可能有	-14608
台中市	-14609
司法院	-14610
司马颖	-14611
各机关	-14612
各省的	-14613
合作用	-14614
合组织	-14615
合肥县	-14616
同性恋	-14617
名单中	-14618
后世的	-14619
君士坦	-14620
吴三桂	-14621
呈现出	-14622
和人民	-14623
和传统	-14624
和佛教	-14625
和修改	-14626
和军事	-14627
和实现	-14628
和电子	-14629
和自由	-14630
和越南	-14631
和香港	-14632
哲学和	-14633
唐代宗	-14634
唐朝与	-14635
唐朝廷	-14636
四川的	-14637
因此在	-14638
因特网	-14639
国之一	-14640
国家对	-14641
国旗法	-14642
国际上	-14643
在东京	-14644
在中共	-14645
在云南	-14646
在任何	-14647
在分析	-14648
在北方	-14649
在南京	-14650
在巴黎	-14651
在抚顺	-14652
地区是	-14653
坎德培	-14654
坐落于	-14655
城区的	-14656
塞纳河	-14657
声音的	-14658
外省人	-14659
多年前	-14660
大学校	-14661
大沽口	-14662
天津话	-14663
太阳的	-14664
太阳风	-14665
契丹人	-14666
奖学金	-14667
奥巴马	-14668
奥斯卡	-14669
女真族	-14670
好莱坞	-14671
孙宝琦	-14672
学者们	-14673
它们都	-14674
完成后	-14675
客家语	-14676
客户端	-14677
密度为	-14678
对人类	-14679
对这些	-14680
就业率	-14681
就曾经	-14682
居住的	-14683
山区的	-14684
山地和	-14685
山海经	-14686
岭南道	-14687
巡航车	-14688
工人党	-14689
工作日	-14690
巧固球	-14691
已知的	-14692
已达到	-14693
已进入	-14694
巴洛克	-14695
希格斯	-14696
帮助下	-14697
平衡点	-14698
年上海	-14699
年之久	-14700
年全国	-14701
年发动	-14702
年发行	-14703
年山东	-14704
并不会	-14705
并成立	-14706
并逐渐	-14707
广泛的	-14708
康德黎	-14709
建筑师	-14710
建设的	-14711
建都于	-14712
开发了	-14713
开始被	-14714
弗拉斯	-14715
强烈的	-14716
归属于	-14717
当时有	-14718
形容为	-14719
很可能	-14720
很容易	-14721
得益于	-14722
德国在	-14723
必须以	-14724
必须是	-14725
忧外患	-14726
总产量	-14727
总人数	-14728
总统的	-14729
意识到	-14730
成为继	-14731
成长的	-14732
战争和	-14733
战场上	-14734
战斗机	-14735
所以在	-14736
所大学	-14737
所需的	-14738
托勒密	-14739
指出了	-14740
按不变	-14741
探测到	-14742
提高到	-14743
放弃了	-14744
政府为	-14745
政府则	-14746
教育家	-14747
数十万	-14748
斐多篇	-14749
斯特里	-14750
方式的	-14751
方形的	-14752
方面军	-14753
旅游区	-14754
日发布	-14755
日本和	-14756
明洪武	-14757
是一座	-14758
是一部	-14759
是什么	-14760
是其中	-14761
是十分	-14762
是来自	-14763
是由于	-14764
是非常	-14765
最丰富	-14766
最冷月	-14767
最后一	-14768
最后于	-14769
最早在	-14770
有一种	-14771
有价值	-14772
有效率	-14773
权力的	-14774
李宗仁	-14775
条规定	-14776
来处理	-14777
杨衢云	-14778
杭州湾	-14779
极高的	-14780
枫叶旗	-14781
标准化	-14782
核聚变	-14783
梅河口	-14784
欧洲和	-14785
此时期	-14786
每个人	-14787
比例为	-14788
民主和	-14789
永恒的	-14790
汉学家	-14791
江南省	-14792
治时期	-14793
法国亦	-14794
法国是	-14795
消费品	-14796
混合物	-14797
渝东南	-14798
渝铁路	-14799
渤海国	-14800
湖泊有	-14801
火山群	-14802
爱尔兰	-14803
牡丹江	-14804
特区的	-14805
王靖雯	-14806
环渤海	-14807
玻色子	-14808
珍珠港	-14809
理论与	-14810
理论中	-14811
甚至有	-14812
由东北	-14813
由中央	-14814
由国家	-14815
由政府	-14816
由美国	-14817
电影和	-14818
电磁学	-14819
病毒的	-14820
白话文	-14821
的三个	-14822
的事件	-14823
的事实	-14824
的产业	-14825
的价格	-14826
的全球	-14827
的决定	-14828
的原始	-14829
的反击	-14830
的后代	-14831
的命令	-14832
的士兵	-14833
的处理	-14834
的威胁	-14835
的实际	-14836
的实验	-14837
的就是	-14838
的想法	-14839
的报告	-14840
的控制	-14841
的政党	-14842
的新闻	-14843
的模型	-14844
的模式	-14845
的气候	-14846
的特征	-14847
的特殊	-14848
的特色	-14849
的状态	-14850
的理想	-14851
的空间	-14852
的结合	-14853
的统一	-14854
的范围	-14855
的话题	-14856
的调查	-14857
的道路	-14858
皇帝与	-14859
监察区	-14860
盛世才	-14861
真实性	-14862
真实的	-14863
短期内	-14864
研究与	-14865
研究法	-14866
社群的	-14867
科罗拉	-14868
科西嘉	-14869
移植到	-14870
程序和	-14871
第一批	-14872
第五位	-14873
第六位	-14874
第十四	-14875
等主要	-14876
等众多	-14877
等大型	-14878
等少数	-14879
等技术	-14880
等政治	-14881
等运动	-14882
米之乡	-14883
米以上	-14884
系统和	-14885
级景区	-14886
纪念碑	-14887
纯数学	-14888
纳瓦拉	-14889
细分为	-14890
终于在	-14891
综合征	-14892
综合症	-14893
网站上	-14894
而且在	-14895
而中国	-14896
而其他	-14897
而到了	-14898
而尽管	-14899
而当时	-14900
而苏联	-14901
而获得	-14902
自动化	-14903
自变量	-14904
自杀率	-14905
自治旗	-14906
自然和	-14907
航站楼	-14908
艺术品	-14909
苏伊士	-14910
苏格兰	-14911
英特尔	-14912
蕴藏量	-14913
薛延陀	-14914
行为和	-14915
行为的	-14916
行政权	-14917
被分为	-14918
裴李岗	-14919
计划于	-14920
让机器	-14921
讲武堂	-14922
许寿裳	-14923
设立有	-14924
证实了	-14925
证明了	-14926
诞生于	-14927
该地区	-14928
诺基亚	-14929
贵德州	-14930
赢得了	-14931
较好的	-14932
辽东郡	-14933
还存在	-14934
还拥有	-14935
这三个	-14936
这些都	-14937
这并不	-14938
这里的	-14939
远地区	-14940
违反了	-14941
连带感	-14942
逊尼派	-14943
郁达夫	-14944
郭子仪	-14945
都已经	-14946
鄂伦春	-14947
重点是	-14948
金曲奖	-14949
金沙江	-14950
钓鱼台	-14951
铁路线	-14952
银行和	-14953
长江和	-14954
阎锡山	-14955
阿奎那	-14956
阿拔斯	-14957
阿骨打	-14958
非营利	-14959
面临着	-14960
音乐会	-14961
页面的	-14962
颁奖礼	-14963
领域中	-14964
额尔古	-14965
风景区	-14966
高尔夫	-14967
高新区	-14968
鲁定公	-14969
鸭绿江	-14970
,600	-14971
.1%;	-14972
.9%;	-14973
1046	-14974
1662	-14975
1789	-14976
1840	-14977
1890	-14978
1907	-14979
1913	-14980
1922	-14981
1967	-14982
1972	-14983
1974	-14984
20%,	-14985
2030	-14986
2758	-14987
80%,	-14988
8000	-14989
BIOS	-14990
eral	-14991
illa	-14992
lack	-14993
oops	-14994
ream	-14995
roid	-14996
talk	-14997
▁2.0	-14998
▁Nav	-14999
▁Sch	-15000
▁合肥市	-15001
▁唐朝的	-15002
▁天文学	-15003
▁托瓦兹	-15004
▁杜鹃花	-15005
▁河南省	-15006
▁法国是	-15007
▁海南岛	-15008
▁蒲松龄	-15009
▁贵州省	-15010
一个程序	-15011
一小部分	-15012
三个阶段	-15013
三中全会	-15014
上海浦东	-15015
上海经济	-15016
不可或缺	-15017
不复存在	-15018
世界三大	-15019
东北三省	-15020
东北部的	-15021
个直辖市	-15022
中华文明	-15023
中原官话	-15024
中国文明	-15025
中国领土	-15026
中小企业	-15027
中山公园	-15028
中心之一	-15029
中文大学	-15030
中的一个	-15031
中美关系	-15032
中部地区	-15033
为了避免	-15034
为浙江省	-15035
主要分为	-15036
主要包括	-15037
主要宗教	-15038
主要是以	-15039
举足轻重	-15040
乌苏里江	-15041
也越来越	-15042
乾隆年间	-15043
二十一年	-15044
二次革命	-15045
五代十国	-15046
五权宪法	-15047
五胡十六	-15048
交易中心	-15049
亨利一世	-15050
京兆地方	-15051
人口超过	-15052
人文景观	-15053
人民行动	-15054
人类学家	-15055
人类文明	-15056
从来没有	-15057
他的理论	-15058
以下几个	-15059
价值理论	-15060
会展中心	-15061
传说中的	-15062
保持中立	-15063
信息系统	-15064
停止流通	-15065
健康保险	-15066
全国第一	-15067
全市共有	-15068
公共政策	-15069
公平竞争	-15070
其中佛教	-15071
其中国际	-15072
其中最为	-15073
其他主要	-15074
内核版本	-15075
军事力量	-15076
军事行动	-15077
军官学校	-15078
冷战时期	-15079
分子与光	-15080
分布不均	-15081
初级阶段	-15082
动员戡乱	-15083
势力范围	-15084
匈奴单于	-15085
北京条约	-15086
北部地区	-15087
南岛语系	-15088
南开大学	-15089
南斯拉夫	-15090
博士学位	-15091
参考资料	-15092
反战游行	-15093
发展阶段	-15094
发扬光大	-15095
发起攻势	-15096
取得胜利	-15097
受到严重	-15098
受到破坏	-15099
古典时代	-15100
只是一种	-15101
可以直接	-15102
可以透过	-15103
可追溯到	-15104
台湾电影	-15105
合并设立	-15106
同时拥有	-15107
名列前茅	-15108
君主专制	-15109
和天主教	-15110
哈萨克族	-15111
商业银行	-15112
商贸中心	-15113
回族人口	-15114
国会议员	-15115
国务总理	-15116
国民教育	-15117
国民革命	-15118
国际电影	-15119
在中国的	-15120
在台湾的	-15121
在此之前	-15122
在韩国的	-15123
型摩托车	-15124
基本粒子	-15125
基督教堂	-15126
增幅达到	-15127
外交承认	-15128
外汇储备	-15129
多年平均	-15130
大幅增加	-15131
大经济体	-15132
大韩民国	-15133
天文观测	-15134
天津市的	-15135
天津滨海	-15136
委员会的	-15137
孙中山为	-15138
宇宙中的	-15139
定址范围	-15140
对外开放	-15141
对柏拉图	-15142
对话录里	-15143
岁以上的	-15144
川东行署	-15145
州刺史部	-15146
工业园区	-15147
差异很大	-15148
市场上的	-15149
平均水平	-15150
年山东省	-15151
年的时间	-15152
广大地区	-15153
广泛应用	-15154
建国方略	-15155
开发人员	-15156
开国大典	-15157
开除党籍	-15158
式橄榄球	-15159
很大影响	-15160
总统选举	-15161
成为一个	-15162
成为全球	-15163
成为新的	-15164
成功占领	-15165
成都地铁	-15166
抗战时期	-15167
报告显示	-15168
持续发展	-15169
接下来的	-15170
插挂国旗	-15171
支线机场	-15172
政府对于	-15173
政府组织	-15174
政治思想	-15175
政治现象	-15176
教育资源	-15177
数学基础	-15178
文件系统	-15179
斯图尔特	-15180
斯坎德培	-15181
无线电波	-15182
日军占领	-15183
日常生活	-15184
早期组织	-15185
是山东省	-15186
智冠科技	-15187
最为发达	-15188
有大量的	-15189
有所不同	-15190
本土语言	-15191
本身就是	-15192
机器学习	-15193
机器语言	-15194
条目数量	-15195
欧洲大陆	-15196
欧洲部分	-15197
正在进行	-15198
殖民帝国	-15199
比较发达	-15200
民族国家	-15201
民营企业	-15202
民营经济	-15203
民间艺术	-15204
汉族人口	-15205
汉武帝时	-15206
江淮官话	-15207
沙坪坝区	-15208
沙皇俄国	-15209
河流域和	-15210
治疗方法	-15211
沿海岛屿	-15212
法国电影	-15213
活动星系	-15214
派遣部队	-15215
海外领地	-15216
海拔高度	-15217
深圳特区	-15218
源代码的	-15219
然而由于	-15220
燕帖木儿	-15221
爱沙尼亚	-15222
特殊教育	-15223
环境问题	-15224
生物体的	-15225
生物医药	-15226
生物学的	-15227
甲午战争	-15228
电视节目	-15229
留下来的	-15230
白俄罗斯	-15231
百家争鸣	-15232
的人认为	-15233
的前提下	-15234
的可能性	-15235
的地级市	-15236
目前已经	-15237
相比之下	-15238
省级以上	-15239
矿路学堂	-15240
研究对象	-15241
研究领域	-15242
社会学系	-15243
社会现象	-15244
社会福利	-15245
社会阶级	-15246
科技成果	-15247
科罗拉多	-15248
秦汉时期	-15249
积极参与	-15250
第一阶段	-15251
第六小组	-15252
管辖范围	-15253
红一方面	-15254
经济实力	-15255
经济效益	-15256
经济方面	-15257
经济活动	-15258
经验主义	-15259
结果显示	-15260
统一天下	-15261
统治台湾	-15262
继承王位	-15263
继续维持	-15264
美国文化	-15265
而产生的	-15266
而形成的	-15267
联合国安	-15268
自然风光	-15269
自由内容	-15270
自由意志	-15271
航空枢纽	-15272
艺术形式	-15273
英法联军	-15274
行政单位	-15275
行政法院	-15276
袭击事件	-15277
装备制造	-15278
西沙群岛	-15279
视为一个	-15280
认为这是	-15281
认知科学	-15282
诸子百家	-15283
负责监督	-15284
财经大学	-15285
走向衰落	-15286
超级电脑	-15287
较大比重	-15288
辽东半岛	-15289
运营线路	-15290
近代中国	-15291
这个计划	-15292
这也使得	-15293
这段期间	-15294
这种说法	-15295
逐渐失去	-15296
通用语言	-15297
通车里程	-15298
都有一个	-15299
重庆江北	-15300
针灸执照	-15301
长江上游	-15302
闭会期间	-15303
阿尔萨斯	-15304
阿拉斯加	-15305
隔海相望	-15306
集体领导	-15307
雕版印刷	-15308
飞速发展	-15309
首次超过	-15310
香港大学	-15311
马关条约	-15312
黄河流域	-15313
黄金时期	-15314
,1949	-15315
,1979	-15316
,1984	-15317
,1997	-15318
Hyper	-15319
Peter	-15320
Relig	-15321
Small	-15322
hemat	-15323
ofess	-15324
ounta	-15325
ublic	-15326
▁1902	-15327
▁1904	-15328
▁1905	-15329
▁1940	-15330
▁1964	-15331
▁1984	-15332
▁全省共有	-15333
▁完成现价	-15334
。1900	-15335
。1905	-15336
。1915	-15337
。1939	-15338
。1959	-15339
。1967	-15340
。1973	-15341
。1982	-15342
。1986	-15343
与上年相比	-15344
与发展组织	-15345
与维基百科	-15346
东南亚国家	-15347
东突厥斯坦	-15348
两者之间的	-15349
中国同盟会	-15350
中国科学院	-15351
九一八事变	-15352
也被认为是	-15353
亚洲四小龙	-15354
伊拉克军队	-15355
伊斯兰世界	-15356
位居全国第	-15357
俄罗斯帝国	-15358
内蒙古人民	-15359
凡尔赛条约	-15360
分子生物学	-15361
加盟共和国	-15362
博客作者的	-15363
占规模以上	-15364
古典经济学	-15365
吉林省政府	-15366
同盟国集团	-15367
呼伦贝尔市	-15368
回族穆斯林	-15369
奠定了基础	-15370
届全国人大	-15371
年中华民国	-15372
成为中国的	-15373
成为重要的	-15374
扮演的角色	-15375
按不变价格	-15376
文化的影响	-15377
新文化运动	-15378
是中国近代	-15379
最多的省份	-15380
有机化合物	-15381
柏拉图认为	-15382
森林覆盖率	-15383
民主集中制	-15384
民族主义的	-15385
法兰西第一	-15386
电子计算机	-15387
的代表人物	-15388
的政治制度	-15389
的研究范围	-15390
的经济中心	-15391
的经济政策	-15392
第二共和国	-15393
系统综合症	-15394
级旅游景区	-15395
经典物理学	-15396
网页浏览器	-15397
美国国务院	-15398
自己的博客	-15399
自然增长率	-15400
苏联共产党	-15401
被广泛使用	-15402
西方国家的	-15403
计划单列市	-15404
计算机系统	-15405
贝尔实验室	-15406
购买力平价	-15407
这也意味著	-15408
退出联合国	-15409
重要的作用	-15410
阿拉斯加州	-15411
陆地面积的	-15412
革命委员会	-15413
领域的研究	-15414
颗小五角星	-15415
高速公路网	-15416
魏晋南北朝	-15417
Leslie	-15418
irefox	-15419
nation	-15420
ologie	-15421
wegian	-15422
中国国民党的	-15423
人类发展指数	-15424
任何人都可以	-15425
其中第一产业	-15426
凝聚态物理学	-15427
加拿大红船旗	-15428
北洋政府时期	-15429
历史上第一个	-15430
友好城市关系	-15431
国民生产总值	-15432
在中国历史上	-15433
地势西高东低	-15434
实现销售收入	-15435
居全国第二位	-15436
年阿尔巴尼亚	-15437
德国和意大利	-15438
拉丁裔美国人	-15439
改革开放以后	-15440
法属印度支那	-15441
理论物理学者	-15442
的新石器时代	-15443
矿产资源丰富	-15444
科学工业园区	-15445
级风景名胜区	-15446
维基百科对于	-15447
维基百科用户	-15448
美利坚合众国	-15449
自然增长率为	-15450
英国广播公司	-15451
菲律宾海板块	-15452
Android	-15453
▁Window	-15454
▁内蒙古自治区	-15455
▁阿尔巴尼亚和	-15456
中共中央副主席	-15457
以同期全国平均	-15458
共产党早期组织	-15459
初步核算的结果	-15460
国民革命军北伐	-15461
宁夏回族自治区	-15462
比去年同期增长	-15463
的阿尔巴尼亚人	-15464
社会主义共和国	-15465
第一次全体会议	-15466
第一次国共合作	-15467
计算机程序设计	-15468
道教和伊斯兰教	-15469
American	-15470
▁science	-15471
中国共产党第十六	-15472
为中华人民共和国	-15473
人均地区生产总值	-15474
全国人口普查相比	-15475
国立台湾师范大学	-15476
图形化使用者介面	-15477
通用公共授权条款	-15478
HyperCard	-15479
Operation	-15480
Smalltalk	-15481
与上年相比增幅达到	-15482
工业总产值的比重为	-15483
▁完成现价工业总产值	-15484
。1979-2007	-15485
严重急性呼吸道综合征	-15486
处国家重点风景名胜区	-15487
严重急性呼吸系统综合症	-15488
联合国安全理事会常任理事国	-15489
占规模以上工业总产值的比重为	-15490
)》	-15491
-8	-15492
:『	-15493
>)	-15494
Am	-15495
CS	-15496
DV	-15497
Ex	-15498
IR	-15499
MP	-15500
MV	-15501
NC	-15502
OC	-15503
OD	-15504
PP	-15505
SF	-15506
Us	-15507
ae	-15508
by	-15509
eh	-15510
ev	-15511
lo	-15512
nu	-15513
oe	-15514
sk	-15515
~4	-15516
~9	-15517
ée	-15518
”:	-15519
▁8	-15520
▁e	-15521
▁但	-15522
▁因	-15523
▁或	-15524
▁最	-15525
▁隋	-15526
」「	-15527
一事	-15528
一份	-15529
一再	-15530
一圈	-15531
一处	-15532
一提	-15533
一支	-15534
一曲	-15535
一本	-15536
一派	-15537
万有	-15538
三元	-15539
三县	-15540
三子	-15541
三朝	-15542
三期	-15543
上岸	-15544
上所	-15545
上旬	-15546
上缴	-15547
下一	-15548
下级	-15549
下表	-15550
下诏	-15551
下跌	-15552
不了	-15553
不作	-15554
不信	-15555
不够	-15556
不安	-15557
不敢	-15558
不时	-15559
不相	-15560
不经	-15561
与可	-15562
与小	-15563
与新	-15564
与阿	-15565
专指	-15566
世宗	-15567
东到	-15568
东吴	-15569
东归	-15570
东魏	-15571
两县	-15572
两场	-15573
两家	-15574
两派	-15575
两百	-15576
两轮	-15577
严密	-15578
严寒	-15579
个地	-15580
个市	-15581
中下	-15582
中不	-15583
中京	-15584
中便	-15585
中对	-15586
中将	-15587
中微	-15588
丰县	-15589
丰镇	-15590
临淄	-15591
为三	-15592
主编	-15593
主轴	-15594
之位	-15595
之余	-15596
之士	-15597
之声	-15598
之大	-15599
之弟	-15600
之所	-15601
之手	-15602
之星	-15603
之比	-15604
之邦	-15605
乌泰	-15606
乘客	-15607
九龄	-15608
也未	-15609
也要	-15610
习得	-15611
书信	-15612
书局	-15613
乱事	-15614
了从	-15615
争辩	-15616
二王	-15617
二的	-15618
于唐	-15619
云林	-15620
五族	-15621
五次	-15622
五龙	-15623
亚伯	-15624
亚军	-15625
亚得	-15626
交领	-15627
人也	-15628
人亦	-15629
人多	-15630
人张	-15631
人有	-15632
仆固	-15633
今后	-15634
仍会	-15635
仍属	-15636
从属	-15637
仔细	-15638
他于	-15639
他便	-15640
他就	-15641
他把	-15642
仙湖	-15643
代的	-15644
代行	-15645
令孜	-15646
以致	-15647
仲恺	-15648
仲裁	-15649
任教	-15650
仿效	-15651
伊始	-15652
休谟	-15653
优于	-15654
会为	-15655
会后	-15656
会对	-15657
会将	-15658
会把	-15659
会昌	-15660
会见	-15661
会计	-15662
传动	-15663
传授	-15664
传至	-15665
传道	-15666
位处	-15667
位次	-15668
低廉	-15669
低迷	-15670
佛兰	-15671
佛朗	-15672
作乱	-15673
作风	-15674
使他	-15675
使命	-15676
侍中	-15677
供需	-15678
便以	-15679
便可	-15680
便宜	-15681
便捷	-15682
便被	-15683
保加	-15684
信托	-15685
修通	-15686
倡议	-15687
偃师	-15688
做市	-15689
健保	-15690
傣族	-15691
催化	-15692
僧侣	-15693
元末	-15694
充实	-15695
先民	-15696
先王	-15697
先锋	-15698
光弼	-15699
光电	-15700
克服	-15701
党等	-15702
入宫	-15703
八一	-15704
兰阳	-15705
关公	-15706
关连	-15707
兴义	-15708
兵法	-15709
兵种	-15710
其对	-15711
兼有	-15712
兼顾	-15713
兽类	-15714
冀州	-15715
冒险	-15716
军费	-15717
农夫	-15718
农耕	-15719
冲绳	-15720
决赛	-15721
几近	-15722
出行	-15723
分时	-15724
分田	-15725
分辨	-15726
刊登	-15727
列传	-15728
刘乔	-15729
刘文	-15730
则多	-15731
初具	-15732
判处	-15733
判定	-15734
利奥	-15735
利普	-15736
别于	-15737
制法	-15738
制裁	-15739
制陶	-15740
前沿	-15741
前述	-15742
剥削	-15743
力度	-15744
加斯	-15745
加重	-15746
务局	-15747
动脉	-15748
勒内	-15749
包公	-15750
北地	-15751
北燕	-15752
北路	-15753
十几	-15754
十道	-15755
升学	-15756
升挂	-15757
午餐	-15758
半径	-15759
协和	-15760
卑南	-15761
单体	-15762
单项	-15763
南面	-15764
占各	-15765
占星	-15766
卡舞	-15767
卢森	-15768
卢芳	-15769
卫兵	-15770
印第	-15771
印钞	-15772
危害	-15773
却又	-15774
去掉	-15775
县及	-15776
县域	-15777
参选	-15778
又在	-15779
又或	-15780
又能	-15781
友谊	-15782
反响	-15783
反弹	-15784
反法	-15785
叔同	-15786
取向	-15787
取材	-15788
取码	-15789
受益	-15790
受过	-15791
变体	-15792
变形	-15793
变换	-15794
变种	-15795
口区	-15796
口齿	-15797
古今	-15798
另立	-15799
另行	-15800
只需	-15801
可与	-15802
可分	-15803
史官	-15804
史料	-15805
史蒂	-15806
司徒	-15807
各处	-15808
各家	-15809
各市	-15810
合伙	-15811
合营	-15812
吉斯	-15813
吉瓦	-15814
吉辽	-15815
同属	-15816
同日	-15817
同月	-15818
名额	-15819
后燕	-15820
吐火	-15821
听众	-15822
启示	-15823
吴王	-15824
吸取	-15825
告别	-15826
周树	-15827
周海	-15828
和东	-15829
和卓	-15830
和吴	-15831
和帝	-15832
和斯	-15833
和省	-15834
和硕	-15835
和被	-15836
和解	-15837
咸水	-15838
哀悼	-15839
哈雷	-15840
哥舒	-15841
哪些	-15842
唱法	-15843
唱腔	-15844
商场	-15845
商鞅	-15846
喀喇	-15847
喀拉	-15848
喇叭	-15849
嘉靖	-15850
囊括	-15851
四五	-15852
四司	-15853
四夷	-15854
回复	-15855
国与	-15856
国产	-15857
国库	-15858
国族	-15859
国昌	-15860
国祚	-15861
国音	-15862
圈的	-15863
在上	-15864
在原	-15865
在沪	-15866
地委	-15867
地权	-15868
地热	-15869
场景	-15870
均以	-15871
坐在	-15872
坚固	-15873
垮台	-15874
埋下	-15875
城中	-15876
城门	-15877
埔寨	-15878
堆积	-15879
塔吉	-15880
填补	-15881
墓地	-15882
增添	-15883
增至	-15884
墨索	-15885
士人	-15886
士诚	-15887
士顿	-15888
声调	-15889
处分	-15890
备战	-15891
外科	-15892
外销	-15893
多伦	-15894
多瑙	-15895
多用	-15896
夜店	-15897
大业	-15898
大字	-15899
大江	-15900
大海	-15901
大片	-15902
大秦	-15903
天水	-15904
天灾	-15905
天独	-15906
天王	-15907
天生	-15908
天皇	-15909
天赋	-15910
太医	-15911
夺位	-15912
奇迹	-15913
奥会	-15914
奥匈	-15915
好处	-15916
好转	-15917
姆士	-15918
婚礼	-15919
孔府	-15920
孔雀	-15921
字根	-15922
孙从	-15923
孙以	-15924
孙抵	-15925
孙科	-15926
学系	-15927
学运	-15928
它在	-15929
它被	-15930
安国	-15931
宋嘉	-15932
宋金	-15933
宗旨	-15934
官兵	-15935
官营	-15936
定性	-15937
定论	-15938
宝山	-15939
实的	-15940
宠爱	-15941
审批	-15942
客流	-15943
宣德	-15944
宣武	-15945
宪章	-15946
家乐	-15947
家和	-15948
家大	-15949
家有	-15950
宽容	-15951
寅藏	-15952
密谋	-15953
富庶	-15954
富强	-15955
富豪	-15956
寮国	-15957
对人	-15958
将之	-15959
将爱	-15960
少许	-15961
尔和	-15962
尖端	-15963
尼克	-15964
尼茨	-15965
尽其	-15966
尽量	-15967
尾羽	-15968
屋敷	-15969
屋顶	-15970
山红	-15971
山越	-15972
山顶	-15973
岩溶	-15974
崇尚	-15975
崇明	-15976
崎岖	-15977
崔胤	-15978
嵩山	-15979
川军	-15980
川剧	-15981
川县	-15982
州郡	-15983
巡视	-15984
巡逻	-15985
巫山	-15986
巴山	-15987
巴托	-15988
巴拉	-15989
巴赫	-15990
市是	-15991
市级	-15992
布里	-15993
希罗	-15994
帕斯	-15995
帝君	-15996
带给	-15997
席卷	-15998
平县	-15999
平遥	-16000
年元	-16001
年因	-16002
年就	-16003
年登	-16004
年百	-16005
并依	-16006
并发	-16007
并行	-16008
幼鸟	-16009
庐山	-16010
底蕴	-16011
座堂	-16012
廷的	-16013
开业	-16014
异的	-16015
引人	-16016
引申	-16017
引致	-16018
张仲	-16019
张伯	-16020
张百	-16021
张贴	-16022
弦乐	-16023
强劲	-16024
当初	-16025
录像	-16026
彰化	-16027
彰显	-16028
影坛	-16029
影帝	-16030
往南	-16031
往后	-16032
征伐	-16033
征战	-16034
很小	-16035
得奖	-16036
微分	-16037
微博	-16038
微波	-16039
德勒	-16040
德文	-16041
德苏	-16042
徽章	-16043
心态	-16044
必武	-16045
快餐	-16046
怀恩	-16047
性与	-16048
性情	-16049
恶意	-16050
悬殊	-16051
悼念	-16052
惨败	-16053
慈善	-16054
慈禧	-16055
慕尼	-16056
戊戌	-16057
成品	-16058
成形	-16059
户数	-16060
户晓	-16061
手工	-16062
手续	-16063
扎赉	-16064
扬子	-16065
技工	-16066
把握	-16067
抗衡	-16068
折衷	-16069
报价	-16070
拉拢	-16071
拉特	-16072
拟定	-16073
拱桥	-16074
拼写	-16075
持平	-16076
指向	-16077
按钮	-16078
据说	-16079
探求	-16080
掩盖	-16081
提示	-16082
搁置	-16083
携眷	-16084
擅长	-16085
收归	-16086
收捕	-16087
放开	-16088
放置	-16089
故里	-16090
效仿	-16091
效忠	-16092
教员	-16093
教皇	-16094
教练	-16095
散居	-16096
数名	-16097
数种	-16098
文凭	-16099
文成	-16100
文蔚	-16101
新朝	-16102
施压	-16103
旅馆	-16104
无力	-16105
旧称	-16106
时为	-16107
时会	-16108
时刻	-16109
时在	-16110
时才	-16111
时机	-16112
昆曲	-16113
明珠	-16114
明经	-16115
星团	-16116
是与	-16117
是人	-16118
是很	-16119
晋城	-16120
晚上	-16121
暂停	-16122
暴乱	-16123
更深	-16124
最受	-16125
月到	-16126
有十	-16127
有意	-16128
有益	-16129
有穷	-16130
有趣	-16131
朗德	-16132
望的	-16133
朝花	-16134
朝野	-16135
未果	-16136
本体	-16137
本色	-16138
朱温	-16139
朱镕	-16140
杂居	-16141
权位	-16142
李靖	-16143
李鹏	-16144
杜甫	-16145
来临	-16146
杨坚	-16147
杨柳	-16148
松赞	-16149
极具	-16150
林区	-16151
林地	-16152
林斯	-16153
林的	-16154
染色	-16155
标本	-16156
校内	-16157
校友	-16158
校尉	-16159
核子	-16160
梁冀	-16161
检试	-16162
楚汉	-16163
楚辞	-16164
概况	-16165
概率	-16166
榜样	-16167
模板	-16168
檀石	-16169
次子	-16170
此前	-16171
此种	-16172
此项	-16173
步伐	-16174
武威	-16175
武当	-16176
残余	-16177
段的	-16178
段落	-16179
殷商	-16180
每当	-16181
比能	-16182
毫不	-16183
民事	-16184
民兵	-16185
民的	-16186
气旋	-16187
水和	-16188
水泥	-16189
水能	-16190
水面	-16191
求和	-16192
汉中	-16193
汉书	-16194
江汉	-16195
汴京	-16196
汽油	-16197
沂蒙	-16198
沃德	-16199
沈吉	-16200
沙尘	-16201
沙特	-16202
沧江	-16203
沪昆	-16204
河内	-16205
河县	-16206
河洛	-16207
河源	-16208
法制	-16209
法式	-16210
泰戈	-16211
洛夫	-16212
洲际	-16213
活泼	-16214
洼地	-16215
流畅	-16216
济宁	-16217
济纳	-16218
浓度	-16219
浙南	-16220
浙西	-16221
海尔	-16222
海滨	-16223
海跋	-16224
涉嫌	-16225
液态	-16226
深水	-16227
深深	-16228
清廉	-16229
清除	-16230
渊源	-16231
渠道	-16232
渡海	-16233
渡轮	-16234
温室	-16235
溶洞	-16236
溶液	-16237
滁州	-16238
滞留	-16239
满蒙	-16240
漫滩	-16241
漳州	-16242
激进	-16243
灵山	-16244
灵庙	-16245
灵王	-16246
烤烟	-16247
热衷	-16248
熟知	-16249
燕赤	-16250
牂牁	-16251
片的	-16252
牙帐	-16253
牛津	-16254
牵涉	-16255
特拉	-16256
特等	-16257
狩猎	-16258
独具	-16259
狮子	-16260
王子	-16261
王建	-16262
王重	-16263
玛丽	-16264
玩具	-16265
环流	-16266
班图	-16267
球和	-16268
瓜分	-16269
甘州	-16270
甚大	-16271
甚少	-16272
生死	-16273
生涯	-16274
用品	-16275
由其	-16276
留存	-16277
略有	-16278
病症	-16279
痛苦	-16280
癌症	-16281
百花	-16282
的二	-16283
的代	-16284
的刘	-16285
的同	-16286
的多	-16287
的年	-16288
的强	-16289
的氢	-16290
的王	-16291
的第	-16292
的纯	-16293
的解	-16294
皇岛	-16295
皇甫	-16296
盘古	-16297
盛唐	-16298
直升	-16299
直线	-16300
相等	-16301
督军	-16302
瞎子	-16303
瞩目	-16304
石等	-16305
矿种	-16306
矿藏	-16307
破产	-16308
确信	-16309
碉堡	-16310
碳氢	-16311
礼服	-16312
祖乙	-16313
祖庭	-16314
神宗	-16315
神明	-16316
神龙	-16317
禁运	-16318
离岛	-16319
秀才	-16320
科布	-16321
科斯	-16322
积蓄	-16323
称之	-16324
称做	-16325
称汗	-16326
称赞	-16327
税赋	-16328
穆宗	-16329
空袭	-16330
空运	-16331
穿着	-16332
突飞	-16333
竖立	-16334
章帝	-16335
等各	-16336
等多	-16337
筹办	-16338
签发	-16339
签定	-16340
简洁	-16341
管控	-16342
管治	-16343
精品	-16344
精简	-16345
红四	-16346
纳尔	-16347
纳税	-16348
纳米	-16349
纷争	-16350
组团	-16351
终年	-16352
终点	-16353
终端	-16354
经纪	-16355
绕过	-16356
统筹	-16357
维克	-16358
维和	-16359
维数	-16360
维斯	-16361
维特	-16362
绿地	-16363
绿林	-16364
绿洲	-16365
编者	-16366
罕见	-16367
罗伯	-16368
罢了	-16369
罢黜	-16370
羁縻	-16371
美观	-16372
美誉	-16373
群落	-16374
老人	-16375
老挝	-16376
考入	-16377
考生	-16378
考验	-16379
而从	-16380
而出	-16381
而此	-16382
而过	-16383
职方	-16384
职棒	-16385
联俄	-16386
胡族	-16387
胡服	-16388
胶辽	-16389
能级	-16390
脚楼	-16391
腾讯	-16392
自制	-16393
致敬	-16394
航太	-16395
艰深	-16396
艺名	-16397
艺宝	-16398
节和	-16399
节省	-16400
花卉	-16401
花式	-16402
花鼓	-16403
芳等	-16404
苍南	-16405
苏轼	-16406
苗栗	-16407
茅盾	-16408
荟萃	-16409
药材	-16410
莫里	-16411
莱布	-16412
菜有	-16413
菜的	-16414
菲靡	-16415
落成	-16416
葱岭	-16417
蒙恬	-16418
蒙特	-16419
蒙疆	-16420
蒙自	-16421
蒯聩	-16422
蓝田	-16423
虽为	-16424
蜀地	-16425
行在	-16426
行宪	-16427
衞瓘	-16428
衣服	-16429
被动	-16430
被贬	-16431
褶皱	-16432
西康	-16433
西江	-16434
西河	-16435
西蒙	-16436
西魏	-16437
要塞	-16438
要对	-16439
要点	-16440
见到	-16441
见面	-16442
解字	-16443
解译	-16444
言之	-16445
言语	-16446
计数	-16447
认真	-16448
训政	-16449
讯号	-16450
评委	-16451
识字	-16452
诡辩	-16453
诺莎	-16454
课税	-16455
贝类	-16456
财务	-16457
败给	-16458
质地	-16459
贯彻	-16460
贺兰	-16461
赚取	-16462
赞普	-16463
赞誉	-16464
赞赏	-16465
赣语	-16466
赦免	-16467
赫勒	-16468
赵国	-16469
赶超	-16470
起用	-16471
超出	-16472
跋扈	-16473
路由	-16474
踏板	-16475
身为	-16476
身心	-16477
身的	-16478
车身	-16479
轮流	-16480
轮胎	-16481
软禁	-16482
边患	-16483
边车	-16484
达木	-16485
过半	-16486
运气	-16487
运转	-16488
近来	-16489
还可	-16490
还将	-16491
还未	-16492
这份	-16493
这在	-16494
这将	-16495
这篇	-16496
进位	-16497
进取	-16498
远在	-16499
远景	-16500
违规	-16501
迟迟	-16502
追究	-16503
追随	-16504
适逢	-16505
适龄	-16506
选区	-16507
选用	-16508
途经	-16509
通缉	-16510
速成	-16511
遍及	-16512
遣送	-16513
避暑	-16514
那种	-16515
邹族	-16516
都对	-16517
都很	-16518
都统	-16519
都蓝	-16520
酿酒	-16521
里德	-16522
重创	-16523
重商	-16524
重地	-16525
重现	-16526
野外	-16527
野蛮	-16528
金星	-16529
鉴于	-16530
钱庄	-16531
钻研	-16532
铁和	-16533
铁器	-16534
铜钱	-16535
银牌	-16536
锦赛	-16537
锻炼	-16538
长篇	-16539
问卷	-16540
队长	-16541
防务	-16542
防备	-16543
防治	-16544
阿克	-16545
附带	-16546
附设	-16547
陇右	-16548
陈家	-16549
陈述	-16550
陷落	-16551
雅各	-16552
集结	-16553
集资	-16554
雨格	-16555
雪山	-16556
青山	-16557
青州	-16558
青霞	-16559
静海	-16560
非典	-16561
面额	-16562
鞑靼	-16563
项羽	-16564
顾实	-16565
题为	-16566
风的	-16567
首要	-16568
香水	-16569
马林	-16570
驱使	-16571
驳回	-16572
驻藏	-16573
骚扰	-16574
骨干	-16575
高端	-16576
高职	-16577
鲁菜	-16578
鲍姆	-16579
黄梅	-16580
黄老	-16581
黎族	-16582
黑水	-16583
黑白	-16584
黔中	-16585
黔南	-16586
(26	-16587
(29	-16588
(75	-16589
,30	-16590
-10	-16591
-64	-16592
.20	-16593
.39	-16594
.45	-16595
.54	-16596
.59	-16597
.5:	-16598
.63	-16599
.68	-16600
.75	-16601
.77	-16602
.79	-16603
.85	-16604
.9%	-16605
.9°	-16606
10°	-16607
111	-16608
129	-16609
15,	-16610
153	-16611
159	-16612
178	-16613
18,	-16614
2%。	-16615
20~	-16616
265	-16617
286	-16618
3.0	-16619
3.2	-16620
3.4	-16621
30°	-16622
322	-16623
372	-16624
383	-16625
390	-16626
470	-16627
5.4	-16628
5.8	-16629
530	-16630
640	-16631
690	-16632
7.7	-16633
705	-16634
771	-16635
841	-16636
985	-16637
FAT	-16638
FTP	-16639
Mat	-16640
PDF	-16641
PHP	-16642
Pal	-16643
_16	-16644
_22	-16645
ani	-16646
arl	-16647
aul	-16648
ble	-16649
eat	-16650
ech	-16651
ene	-16652
ier	-16653
iss	-16654
lop	-16655
mon	-16656
obe	-16657
obs	-16658
ult	-16659
ung	-16660
urd	-16661
uth	-16662
web	-16663
ype	-16664
zen	-16665
▁-{	-16666
▁Ex	-16667
▁Mo	-16668
▁Te	-16669
▁东北	-16670
▁中文	-16671
▁公元	-16672
▁包括	-16673
▁博客	-16674
▁历史	-16675
▁实验	-16676
▁当前	-16677
▁按照	-16678
▁数论	-16679
▁文化	-16680
▁明代	-16681
▁最早	-16682
▁有关	-16683
▁法学	-16684
▁海南	-16685
▁省内	-16686
▁阿诺	-16687
▁陕西	-16688
、16	-16689
。80	-16690
。”“	-16691
一共有	-16692
一分为	-16693
一百万	-16694
一般会	-16695
一词在	-16696
一词的	-16697
一部份	-16698
万千瓦	-16699
万物之	-16700
三十年	-16701
上发表	-16702
上都有	-16703
下降了	-16704
不一定	-16705
不支持	-16706
不稳定	-16707
不足以	-16708
与哲学	-16709
与大陆	-16710
与改革	-16711
与现实	-16712
与科学	-16713
与重庆	-16714
专制的	-16715
世界级	-16716
东北局	-16717
东北的	-16718
东南低	-16719
东莞县	-16720
东西方	-16721
两国在	-16722
两岸三	-16723
两栖类	-16724
个人和	-16725
个月的	-16726
中具有	-16727
中国于	-16728
中国有	-16729
中小型	-16730
中的一	-16731
中进行	-16732
为主导	-16733
为人知	-16734
为借口	-16735
为标志	-16736
为欧盟	-16737
为避免	-16738
举办过	-16739
乃至于	-16740
之子李	-16741
也发生	-16742
也导致	-16743
也影响	-16744
也曾经	-16745
也有些	-16746
也比较	-16747
也由于	-16748
也相继	-16749
也称为	-16750
也认为	-16751
也通过	-16752
也都是	-16753
了一场	-16754
了一次	-16755
了不少	-16756
了两个	-16757
了解的	-16758
了这一	-16759
争议性	-16760
事务局	-16761
事活动	-16762
二战后	-16763
二行程	-16764
五台山	-16765
五指山	-16766
亚太经	-16767
交易会	-16768
交界处	-16769
产业占	-16770
京剧院	-16771
京哈线	-16772
人与人	-16773
人们在	-16774
人士的	-16775
人民大	-16776
人类与	-16777
仅有的	-16778
从而使	-16779
他们所	-16780
他对于	-16781
代表性	-16782
以保护	-16783
以北的	-16784
以及与	-16785
以后的	-16786
以帮助	-16787
以提高	-16788
以满足	-16789
伤寒论	-16790
但他们	-16791
但同时	-16792
但对于	-16793
但尽管	-16794
但当时	-16795
但很快	-16796
低效率	-16797
体现在	-16798
作为其	-16799
使台湾	-16800
使得其	-16801
依次是	-16802
便可以	-16803
俗称为	-16804
保守的	-16805
保持了	-16806
保险业	-16807
信息的	-16808
倡导者	-16809
催化剂	-16810
元明清	-16811
充满了	-16812
克萨斯	-16813
全省共	-16814
公园等	-16815
公安局	-16816
公开发	-16817
公路网	-16818
关东军	-16819
关帝庙	-16820
关系和	-16821
关键字	-16822
其自身	-16823
再一次	-16824
写成的	-16825
农林牧	-16826
决定于	-16827
出发的	-16828
出版了	-16829
分为两	-16830
分类为	-16831
划分成	-16832
则通过	-16833
到美国	-16834
制度上	-16835
前所未	-16836
前身为	-16837
副产品	-16838
副总理	-16839
力量的	-16840
加冕为	-16841
动物学	-16842
劳动党	-16843
化政策	-16844
匹配项	-16845
区分为	-16846
区改称	-16847
区面积	-16848
十一届	-16849
十一年	-16850
十八年	-16851
十年来	-16852
半导体	-16853
半岛和	-16854
单一的	-16855
单位的	-16856
南匈奴	-16857
南山区	-16858
南运河	-16859
博物院	-16860
卢森堡	-16861
印第安	-16862
原材料	-16863
参议员	-16864
及所属	-16865
发展为	-16866
发电量	-16867
古至今	-16868
只允许	-16869
只剩下	-16870
只能够	-16871
可开发	-16872
可能与	-16873
可能为	-16874
可达到	-16875
可靠的	-16876
台湾岛	-16877
号国旗	-16878
司令部	-16879
司马炎	-16880
司马迁	-16881
合作区	-16882
名称为	-16883
向美国	-16884
向西南	-16885
周幽王	-16886
周海婴	-16887
周王室	-16888
和世界	-16889
和全球	-16890
和卫星	-16891
和宗教	-16892
和应用	-16893
和空间	-16894
和西藏	-16895
和需求	-16896
哈卡舞	-16897
哥舒翰	-16898
唐文宗	-16899
商业区	-16900
商业和	-16901
四大名	-16902
因此被	-16903
国子监	-16904
国家或	-16905
国庆日	-16906
国歌的	-16907
在传统	-16908
在位时	-16909
在使用	-16910
在各种	-16911
在四川	-16912
在大陆	-16913
在学术	-16914
在宦官	-16915
在山东	-16916
在当地	-16917
在整个	-16918
在文学	-16919
在明代	-16920
在清朝	-16921
在甘肃	-16922
在韩国	-16923
地区及	-16924
地图学	-16925
均衡点	-16926
型企业	-16927
培养出	-16928
塑造了	-16929
复制的	-16930
复数域	-16931
夏季达	-16932
多元化	-16933
多公里	-16934
多次被	-16935
大一统	-16936
大中华	-16937
大将军	-16938
大平原	-16939
大质量	-16940
太医院	-16941
契丹族	-16942
奥斯陆	-16943
女性的	-16944
女真人	-16945
奴隶制	-16946
孔子的	-16947
孔子说	-16948
孕育了	-16949
孙先生	-16950
孙逸仙	-16951
孟德斯	-16952
学派的	-16953
学者和	-16954
安东省	-16955
安德烈	-16956
安托万	-16957
安特生	-16958
完善的	-16959
定义了	-16960
定义是	-16961
实力大	-16962
实行的	-16963
容易被	-16964
对应于	-16965
对当时	-16966
对我们	-16967
将中国	-16968
将台湾	-16969
将大量	-16970
将天津	-16971
将自己	-16972
将自身	-16973
将超过	-16974
将达到	-16975
尊称为	-16976
少有的	-16977
就开始	-16978
就成为	-16979
就无法	-16980
山东的	-16981
山区和	-16982
已超过	-16983
已逐渐	-16984
市区的	-16985
希望能	-16986
平台上	-16987
平均为	-16988
平民的	-16989
年中共	-16990
年人口	-16991
年代和	-16992
年前后	-16993
年去世	-16994
年夏天	-16995
年天津	-16996
年居第	-16997
年开通	-16998
年数据	-16999
年日照	-17000
年超越	-17001
年轻的	-17002
并任命	-17003
并建立	-17004
并形成	-17005
并提供	-17006
并提出	-17007
并无法	-17008
并表示	-17009
并设置	-17010
广东话	-17011
广义的	-17012
应用到	-17013
康德的	-17014
康有为	-17015
廖仲恺	-17016
建国后	-17017
建筑有	-17018
开始以	-17019
开辟了	-17020
引进了	-17021
张九龄	-17022
张亚东	-17023
张士诚	-17024
张百熙	-17025
强制性	-17026
往往不	-17027
很好的	-17028
很早就	-17029
徐向前	-17030
得天独	-17031
微中子	-17032
德国人	-17033
德里希	-17034
必须先	-17035
性气候	-17036
性问题	-17037
总需求	-17038
恒星和	-17039
情报局	-17040
意义上	-17041
感受到	-17042
成一个	-17043
成为新	-17044
或通过	-17045
战败后	-17046
所采用	-17047
才开始	-17048
打败了	-17049
扩大的	-17050
找到了	-17051
抑郁症	-17052
抚南区	-17053
抛弃了	-17054
指南车	-17055
指挥官	-17056
掌国家	-17057
提高了	-17058
摄氏度	-17059
摇滚乐	-17060
撰写了	-17061
改组为	-17062
政府将	-17063
敌人的	-17064
数据为	-17065
整数基	-17066
文化也	-17067
斗争中	-17068
断字点	-17069
新中国	-17070
新青年	-17071
无限的	-17072
日下午	-17073
日宣布	-17074
日心说	-17075
日志式	-17076
日日本	-17077
明宣宗	-17078
是一套	-17079
是上海	-17080
是全市	-17081
是古代	-17082
是否为	-17083
是唐朝	-17084
是现今	-17085
是透过	-17086
是重庆	-17087
晋文公	-17088
更新的	-17089
曾提出	-17090
最初是	-17091
最初的	-17092
最小的	-17093
月上旬	-17094
月成立	-17095
有多种	-17096
有将近	-17097
有理数	-17098
朝天门	-17099
朝廷的	-17100
未解决	-17101
本质上	-17102
朱镕基	-17103
机场和	-17104
机场的	-17105
李叔同	-17106
李怀光	-17107
条目数	-17108
枚金牌	-17109
柬埔寨	-17110
标志著	-17111
核技术	-17112
核潜艇	-17113
梅屋敷	-17114
植物的	-17115
檀石槐	-17116
歌仔戏	-17117
歌剧院	-17118
歌唱家	-17119
正整数	-17120
残疾人	-17121
比赛中	-17122
毕业于	-17123
氢分子	-17124
汉医学	-17125
汉文化	-17126
汉高祖	-17127
江北区	-17128
沈钧儒	-17129
沙头角	-17130
治所在	-17131
沿岸的	-17132
法国人	-17133
法国和	-17134
法律和	-17135
法理学	-17136
波普尔	-17137
洪秀全	-17138
流行榜	-17139
海峡与	-17140
海洋学	-17141
海陆丰	-17142
深圳墟	-17143
清光绪	-17144
渝东北	-17145
温带和	-17146
游击队	-17147
演员有	-17148
漠北的	-17149
潜意识	-17150
澜沧江	-17151
热河省	-17152
然后是	-17153
煤层气	-17154
燕赤霞	-17155
爱好者	-17156
版本中	-17157
特别的	-17158
特有种	-17159
王朝在	-17160
环境下	-17161
珠崖郡	-17162
甚至于	-17163
甚至会	-17164
生产和	-17165
生成的	-17166
田令孜	-17167
由日本	-17168
电磁波	-17169
电脑等	-17170
登记的	-17171
百分比	-17172
百强县	-17173
百灵庙	-17174
的专家	-17175
的中文	-17176
的主力	-17177
的了解	-17178
的代码	-17179
的作家	-17180
的作者	-17181
的保护	-17182
的入侵	-17183
的农村	-17184
的分析	-17185
的到来	-17186
的发明	-17187
的名义	-17188
的地址	-17189
的基地	-17190
的天体	-17191
的失败	-17192
的实力	-17193
的德国	-17194
的成果	-17195
的扩域	-17196
的投入	-17197
的收入	-17198
的改变	-17199
的政权	-17200
的文字	-17201
的新兴	-17202
的最大	-17203
的最终	-17204
的条件	-17205
的桥梁	-17206
的演出	-17207
的状况	-17208
的生命	-17209
的科技	-17210
的称呼	-17211
的第二	-17212
的第四	-17213
的简称	-17214
的管理	-17215
的类别	-17216
的纪录	-17217
的观测	-17218
的证据	-17219
的货币	-17220
的运输	-17221
的页面	-17222
的风险	-17223
的高级	-17224
皇太弟	-17225
目前已	-17226
目前的	-17227
直隶州	-17228
着重于	-17229
矛盾的	-17230
知识和	-17231
石敬瑭	-17232
矿产为	-17233
研究在	-17234
确定为	-17235
示范区	-17236
社区的	-17237
神学家	-17238
神学院	-17239
科学与	-17240
科学校	-17241
秦王朝	-17242
秦皇岛	-17243
秦襄公	-17244
积极性	-17245
空军的	-17246
突出的	-17247
第一张	-17248
第七次	-17249
第二版	-17250
第五代	-17251
第五大	-17252
第四届	-17253
等功能	-17254
等各个	-17255
等城市	-17256
等方法	-17257
等诸侯	-17258
等都是	-17259
等重大	-17260
签订的	-17261
米歇尔	-17262
綦江县	-17263
红四军	-17264
级联赛	-17265
纪录的	-17266
纳粹党	-17267
经销商	-17268
结束时	-17269
结构上	-17270
绝对的	-17271
维护者	-17272
编辑的	-17273
罕见的	-17274
罗贝尔	-17275
美丽的	-17276
美国也	-17277
美国和	-17278
群体的	-17279
羽毛球	-17280
老龄化	-17281
而导致	-17282
而形成	-17283
而爆发	-17284
而这种	-17285
而逐渐	-17286
而造成	-17287
而随著	-17288
肥胖率	-17289
背后的	-17290
背景下	-17291
脚踏车	-17292
自己为	-17293
自己是	-17294
自由地	-17295
至台湾	-17296
苏联和	-17297
英国人	-17298
英语中	-17299
范阳王	-17300
获得过	-17301
菲靡靡	-17302
落后于	-17303
董事长	-17304
董必武	-17305
蔡英文	-17306
藩属国	-17307
虚拟机	-17308
表现出	-17309
表示为	-17310
被作为	-17311
被列为	-17312
被用于	-17313
被看作	-17314
被证明	-17315
裔美国	-17316
西向东	-17317
西塞罗	-17318
西洋棋	-17319
规划中	-17320
詹姆士	-17321
讨论了	-17322
让他们	-17323
记录了	-17324
论医学	-17325
评价为	-17326
该项目	-17327
语言和	-17328
语言是	-17329
诸军事	-17330
象征着	-17331
赴日本	-17332
趋向于	-17333
路易斯	-17334
软件和	-17335
轲比能	-17336
较小的	-17337
较长的	-17338
运动中	-17339
还规定	-17340
还设立	-17341
这些人	-17342
这句话	-17343
这方面	-17344
这本书	-17345
通过的	-17346
逝世后	-17347
道德经	-17348
邦交国	-17349
郊区的	-17350
部电影	-17351
都具有	-17352
都市圈	-17353
都市报	-17354
都曾经	-17355
都设有	-17356
都采用	-17357
鄱阳湖	-17358
采取了	-17359
里程达	-17360
金唱片	-17361
铝土矿	-17362
锡尔河	-17363
问题和	-17364
防火墙	-17365
阿尔泰	-17366
陈其美	-17367
陈淑芬	-17368
除了在	-17369
雅马哈	-17370
雍正帝	-17371
霍布斯	-17372
青少年	-17373
非正常	-17374
革命后	-17375
音乐节	-17376
颁布的	-17377
额济纳	-17378
马拉松	-17379
马歇尔	-17380
驾崩后	-17381
高卢的	-17382
高雄港	-17383
鲁迅与	-17384
鲁迅是	-17385
黄花岗	-17386
龙岗区	-17387
(,),	-17388
,500	-17389
.7%;	-17390
.8%;	-17391
/360	-17392
1125	-17393
1404	-17394
1884	-17395
1892	-17396
1904	-17397
1906	-17398
1914	-17399
1915	-17400
1916	-17401
1923	-17402
2600	-17403
30%,	-17404
4500	-17405
50%,	-17406
Alex	-17407
Eyes	-17408
HTML	-17409
Perl	-17410
ages	-17411
angu	-17412
ated	-17413
ater	-17414
ency	-17415
hael	-17416
idia	-17417
ific	-17418
ight	-17419
imon	-17420
ique	-17421
ista	-17422
ness	-17423
orph	-17424
ower	-17425
rand	-17426
reat	-17427
wins	-17428
▁Bar	-17429
▁Ber	-17430
▁Com	-17431
▁中世纪	-17432
▁事实上	-17433
▁台湾的	-17434
▁广东省	-17435
▁心理学	-17436
▁截止到	-17437
▁江西省	-17438
▁泰勒斯	-17439
▁社会学	-17440
▁福建省	-17441
▁经济学	-17442
▁美国的	-17443
一直没有	-17444
三十二年	-17445
上市公司	-17446
上诉法院	-17447
不仅仅是	-17448
不尽相同	-17449
与毛泽东	-17450
与邓丽君	-17451
专有软件	-17452
世界前列	-17453
世界经济	-17454
世纪以来	-17455
世纪后期	-17456
两个部分	-17457
两大部分	-17458
两江新区	-17459
个副省级	-17460
个行政村	-17461
中国内地	-17462
中国国家	-17463
中国国际	-17464
中国近代	-17465
中文金曲	-17466
中级法院	-17467
为主题的	-17468
主教座堂	-17469
主流媒体	-17470
主要信仰	-17471
主要通过	-17472
也出现了	-17473
也是一种	-17474
也有可能	-17475
事业单位	-17476
二十八年	-17477
二氧化碳	-17478
五分之一	-17479
亚洲国家	-17480
亚特兰大	-17481
亨利二世	-17482
人们可以	-17483
人口最多	-17484
人数最多	-17485
人民公社	-17486
人民民主	-17487
人类行为	-17488
仆固怀恩	-17489
他的哲学	-17490
他自己的	-17491
以南地区	-17492
以及台湾	-17493
以女性为	-17494
伊利里亚	-17495
休养生息	-17496
优惠政策	-17497
会议决定	-17498
传统医学	-17499
传统建筑	-17500
但大多数	-17501
但是对于	-17502
位于长江	-17503
体育赛事	-17504
佛教协会	-17505
使用各种	-17506
俄罗斯的	-17507
保加利亚	-17508
保有资源	-17509
信息处理	-17510
信教群众	-17511
修改版本	-17512
傅作义部	-17513
全世界的	-17514
全面爆发	-17515
公家机关	-17516
公民投票	-17517
公私合营	-17518
六分之一	-17519
其他语言	-17520
其他领域	-17521
内忧外患	-17522
农民起义	-17523
出生率为	-17524
出租汽车	-17525
则是中国	-17526
初步形成	-17527
制造业和	-17528
割据政权	-17529
加入北约	-17530
化学武器	-17531
北京地区	-17532
北大西洋	-17533
北洋军阀	-17534
北部边境	-17535
十大单曲	-17536
十大建设	-17537
半总统制	-17538
华语电影	-17539
南京条约	-17540
南昌起义	-17541
占全国的	-17542
占各土类	-17543
发动起义	-17544
发展战略	-17545
发展速度	-17546
变得更加	-17547
古典音乐	-17548
古埃及的	-17549
另一部分	-17550
只是一个	-17551
可以找到	-17552
可以说是	-17553
可追溯至	-17554
史瓦辛格	-17555
司令长官	-17556
君主立宪	-17557
和亲政策	-17558
哈佛大学	-17559
哈尔滨市	-17560
唯一一个	-17561
唯心主义	-17562
四面环海	-17563
国会通过	-17564
国家元首	-17565
国语专辑	-17566
国防部长	-17567
土地面积	-17568
在全国的	-17569
在此之后	-17570
在这之中	-17571
在这之后	-17572
地方语言	-17573
地球表面	-17574
均田制与	-17575
城镇居民	-17576
墨索里尼	-17577
多元文化	-17578
大专院校	-17579
大五角星	-17580
大致分为	-17581
大鹏所城	-17582
天文现象	-17583
奴隶制度	-17584
如何处理	-17585
如果我们	-17586
始终无法	-17587
娱乐活动	-17588
存在一些	-17589
孟德斯鸠	-17590
宋明理学	-17591
官方汇率	-17592
实际管辖	-17593
实验结果	-17594
审查制度	-17595
宫崎寅藏	-17596
对中国的	-17597
对于这些	-17598
对外方面	-17599
小动员令	-17600
少数几个	-17601
就是一种	-17602
工业企业	-17603
工业基础	-17604
工业社会	-17605
工程大学	-17606
工程院校	-17607
希罗多德	-17608
平均地权	-17609
平均每年	-17610
年世界杯	-17611
年代后期	-17612
年代末期	-17613
年均增长	-17614
年的中国	-17615
年的发展	-17616
并不存在	-17617
并且认为	-17618
广播频道	-17619
建成通车	-17620
建立唐朝	-17621
建筑风格	-17622
开发区和	-17623
开始流行	-17624
开始研究	-17625
开始进行	-17626
开放城市	-17627
开放源码	-17628
开源软体	-17629
弹道飞弹	-17630
归纳推理	-17631
当地居民	-17632
形式语言	-17633
德军部队	-17634
总统任期	-17635
恢复中华	-17636
慈禧太后	-17637
成为一门	-17638
战争结束	-17639
战国时代	-17640
所形成的	-17641
托瓦兹在	-17642
技术人员	-17643
抗议活动	-17644
护法运动	-17645
拥有众多	-17646
挂牌成立	-17647
指的则是	-17648
排名世界	-17649
排名第一	-17650
搜寻引擎	-17651
搜索引擎	-17652
政协主席	-17653
政治中心	-17654
政治主张	-17655
政治立场	-17656
政治腐败	-17657
政治运动	-17658
教会学校	-17659
教育体系	-17660
文学家有	-17661
斯宾诺莎	-17662
新式学堂	-17663
新闻报道	-17664
无法解释	-17665
无神论者	-17666
日本东京	-17667
日耳曼人	-17668
是中国人	-17669
是来自于	-17670
是纽西兰	-17671
晚清时期	-17672
普通本科	-17673
最佳专辑	-17674
最大的是	-17675
最强大的	-17676
最早的一	-17677
最终导致	-17678
最高领导	-17679
有所差异	-17680
有时也会	-17681
有时也被	-17682
木刻版画	-17683
本地居民	-17684
机器翻译	-17685
来自中国	-17686
柏拉图和	-17687
柏拉图在	-17688
桂南平话	-17689
椭圆星系	-17690
横断山脉	-17691
欧亚板块	-17692
款摩托车	-17693
正体中文	-17694
正是因为	-17695
武装冲突	-17696
武装警察	-17697
每个行程	-17698
比较优势	-17699
民俗文化	-17700
民族自治	-17701
气候变化	-17702
汇丰银行	-17703
汇率制度	-17704
没有太阳	-17705
河北三镇	-17706
河流众多	-17707
沿用至今	-17708
法国国王	-17709
波旁王朝	-17710
洛矶山脉	-17711
派出机构	-17712
海上贸易	-17713
海南旅游	-17714
海外贸易	-17715
海洋生物	-17716
清廉印象	-17717
清朝统治	-17718
港澳地区	-17719
热带气旋	-17720
物理学家	-17721
物理性质	-17722
物理科学	-17723
物理行为	-17724
特大城市	-17725
特殊指令	-17726
特种部队	-17727
独立战争	-17728
王朝时期	-17729
环境污染	-17730
现代科学	-17731
现实主义	-17732
生物化学	-17733
由重庆市	-17734
电子工业	-17735
电子竞技	-17736
电子邮件	-17737
百度百科	-17738
的代表作	-17739
的代表性	-17740
的使用者	-17741
的原住民	-17742
的发展和	-17743
的思想家	-17744
的新儒学	-17745
的条件下	-17746
的目标是	-17747
的研究和	-17748
的研究者	-17749
的程序员	-17750
的经济学	-17751
的维基人	-17752
的领导下	-17753
皇家海军	-17754
直接兑换	-17755
相互影响	-17756
相关条目	-17757
省委书记	-17758
看不见的	-17759
短篇小说	-17760
研究项目	-17761
硕士学位	-17762
社会保险	-17763
社会动荡	-17764
社会研究	-17765
社会组织	-17766
社会行为	-17767
神经科学	-17768
科学方法	-17769
科技进步	-17770
积极发展	-17771
穆斯林占	-17772
突飞猛进	-17773
立方公尺	-17774
立法机关	-17775
符号逻辑	-17776
等方面的	-17777
系统可以	-17778
紧密联系	-17779
繁体中文	-17780
纽约时报	-17781
经史子集	-17782
经济学上	-17783
经济学奖	-17784
经济建设	-17785
经济繁荣	-17786
结构主义	-17787
统一全国	-17788
统治期间	-17789
统计力学	-17790
继续进行	-17791
编辑条目	-17792
网页地址	-17793
美国文学	-17794
美国民众	-17795
美术学院	-17796
老年人口	-17797
胶济铁路	-17798
脊椎动物	-17799
腓力四世	-17800
自然数的	-17801
自然景观	-17802
自由文档	-17803
至今已有	-17804
苏联政府	-17805
苏联部队	-17806
英国政府	-17807
获得法国	-17808
蒋中正于	-17809
蒙古高原	-17810
行政制度	-17811
表态支持	-17812
表演团体	-17813
被称之为	-17814
西北地区	-17815
西周时期	-17816
西班牙语	-17817
解决问题	-17818
解除戒严	-17819
计划生育	-17820
计算机和	-17821
认为这些	-17822
设备驱动	-17823
评论学会	-17824
说文解字	-17825
贝加尔湖	-17826
贞观之治	-17827
贞观元年	-17828
达斡尔族	-17829
迁往台湾	-17830
这个故事	-17831
这个领域	-17832
这是因为	-17833
这是由于	-17834
这样表示	-17835
这种形式	-17836
这种方式	-17837
进行分类	-17838
进行观测	-17839
造成大量	-17840
逻辑推理	-17841
道德准则	-17842
邓丽君在	-17843
邓小平在	-17844
都有自己	-17845
都蓝可汗	-17846
重庆市区	-17847
重点放在	-17848
重要角色	-17849
金融市场	-17850
铁路通车	-17851
长期统治	-17852
附属医院	-17853
青铜时代	-17854
非常丰富	-17855
面积公式	-17856
面积超过	-17857
音乐学院	-17858
额尔古纳	-17859
首次使用	-17860
驱除鞑虏	-17861
鱼米之乡	-17862
鲁迅先生	-17863
黄河中游	-17864
(1860	-17865
(2003	-17866
2,000	-17867
2,500	-17868
Frank	-17869
MINIX	-17870
MySQL	-17871
ander	-17872
encyc	-17873
ernel	-17874
ffice	-17875
inese	-17876
ivers	-17877
osaic	-17878
ysics	-17879
▁1368	-17880
▁1908	-17881
▁1919	-17882
▁1925	-17883
▁1928	-17884
▁1929	-17885
▁1933	-17886
▁1936	-17887
▁1954	-17888
▁1958	-17889
▁1988	-17890
▁1992	-17891
▁Oper	-17892
▁中国大陆	-17893
▁人工智能	-17894
▁体育运动	-17895
▁在公元前	-17896
▁海外华人	-17897
▁离散数学	-17898
▁诺贝尔奖	-17899
▁除此之外	-17900
。1895	-17901
。1899	-17902
。1906	-17903
。1917	-17904
。1932	-17905
。1935	-17906
。1957	-17907
。1962	-17908
。1963	-17909
。1969	-17910
。1971	-17911
。1975	-17912
。1985	-17913
「1993	-17914
万物的本原	-17915
上海市政府	-17916
专属经济区	-17917
专注于研究	-17918
世界博览会	-17919
世纪下半叶	-17920
世纪的法国	-17921
东南亚地区	-17922
个人演唱会	-17923
个电视频道	-17924
中医药大学	-17925
中国古代的	-17926
中央书记处	-17927
中央政府的	-17928
为通商口岸	-17929
主演的电影	-17930
主要流行于	-17931
乌拉尔山脉	-17932
也是世界上	-17933
人民检察院	-17934
以及后来的	-17935
任正副总统	-17936
企划制作的	-17937
伊拉克临时	-17938
使用的语言	-17939
其中国家级	-17940
几乎所有的	-17941
前所未有的	-17942
南千岛群岛	-17943
县县通高速	-17944
发展起来的	-17945
台湾蓝鹊的	-17946
君主专制的	-17947
君士坦丁堡	-17948
唐玄宗开元	-17949
国务院决定	-17950
在中国东北	-17951
在马来西亚	-17952
地球大气层	-17953
地理资讯学	-17954
基督教新教	-17955
塔里木盆地	-17956
夏季达沃斯	-17957
多民族国家	-17958
大致可分为	-17959
大陆性气候	-17960
大陆海岸线	-17961
天主教信徒	-17962
天文物理学	-17963
完成增加值	-17964
宗教是中国	-17965
小资产阶级	-17966
居世界首位	-17967
居全国第一	-17968
巡回演唱会	-17969
已知最早的	-17970
年百大专辑	-17971
年首次突破	-17972
广西电视台	-17973
弗拉斯托斯	-17974
弗里德里希	-17975
彼此之间的	-17976
拜占庭帝国	-17977
按可比价格	-17978
提供了一个	-17979
改革开放的	-17980
旅客周转量	-17981
是新儒学的	-17982
最受欢迎的	-17983
有密切关系	-17984
本身并没有	-17985
札萨克蒙古	-17986
柏拉图著作	-17987
步行街商圈	-17988
汉族人口为	-17989
沙特阿拉伯	-17990
治丧委员会	-17991
深远的影响	-17992
演唱会的场	-17993
生物多样性	-17994
的作业系统	-17995
的哲学思想	-17996
的城市之一	-17997
的平均水平	-17998
的比重达到	-17999
的经济学家	-18000
的行政区划	-18001
的重要基地	-18002
碳氢化合物	-18003
科学发展观	-18004
程式设计师	-18005
经济发展的	-18006
维基百科便	-18007
耶律阿保机	-18008
联邦共和国	-18009
自由贸易区	-18010
自由贸易港	-18011
英国殖民地	-18012
范围相当于	-18013
菲靡靡之音	-18014
著名的法国	-18015
西北向东南	-18016
计算机程序	-18017
货物周转量	-18018
资本主义的	-18019
进出口贸易	-18020
邓小平理论	-18021
钓鱼台列屿	-18022
锦标赛冠军	-18023
长江中下游	-18024
阿拉伯半岛	-18025
非正常死亡	-18026
非金属矿产	-18027
颁奖典礼上	-18028
黄河中下游	-18029
Apache	-18030
eneral	-18031
igator	-18032
ournal	-18033
▁Group	-18034
▁Vista	-18035
▁俄罗斯联邦	-18036
▁撤销抚顺市	-18037
▁毕达哥拉斯	-18038
▁计算机网络	-18039
▁计算语言学	-18040
与中国共产党	-18041
世界上最大的	-18042
业余天文学家	-18043
个国家和地区	-18044
中华民国首都	-18045
中国抗日战争	-18046
中国民间信仰	-18047
中等职业学校	-18048
为中国共产党	-18049
人民币对美元	-18050
人民民主专政	-18051
使用维基百科	-18052
共产主义小组	-18053
制宪国民大会	-18054
十大中文金曲	-18055
华语流行音乐	-18056
南京临时政府	-18057
取而代之的是	-18058
台湾流行音乐	-18059
四颗小五角星	-18060
国家森林公园	-18061
国际金融中心	-18062
在中国国民党	-18063
在韩国的销量	-18064
地理信息系统	-18065
外商直接投资	-18066
外汇交易中心	-18067
岁及以上人口	-18068
形成了独特的	-18069
文艺复兴时期	-18070
是中国历史上	-18071
普通高等学校	-18072
月平均气温为	-18073
条目质量提升	-18074
来自中国大陆	-18075
欧亚大陆板块	-18076
汉语西南官话	-18077
法兰西共和国	-18078
由中国国民党	-18079
的发祥地之一	-18080
社会主义制度	-18081
第二大经济体	-18082
第四套人民币	-18083
联合国安理会	-18084
芬兰赫尔辛基	-18085
行政长官公署	-18086
计划生育政策	-18087
计算机科学家	-18088
计算语言学家	-18089
Cracker	-18090
Michael	-18091
ization	-18092
东北行政委员会	-18093
中共中央东北局	-18094
中国中央电视台	-18095
中国共产党认为	-18096
中国国民党中央	-18097
之间的相互作用	-18098
五胡十六国时期	-18099
人大常委会主任	-18100
内蒙古自治区的	-18101
副热带季风气候	-18102
十一届三中全会	-18103
对于维基百科的	-18104
平方千米以上的	-18105
得到恢复和发展	-18106
按不变价格推算	-18107
新宾满族自治县	-18108
新政治协商会议	-18109
旧石器时代晚期	-18110
是中国共产党的	-18111
泰奥弗拉斯托斯	-18112
物价水平为基准	-18113
理论计算机科学	-18114
第六次人口普查	-18115
纪律检查委员会	-18116
香港特别行政区	-18117
Computer	-18118
Geograph	-18119
encyclop	-18120
ological	-18121
上海人民广播电台	-18122
中国人民武装警察	-18123
中国历史文化名村	-18124
亚里士多德的作品	-18125
占各土类总面积的	-18126
国务院总理李克强	-18127
在第二次世界大战	-18128
均田制与租庸调制	-18129
届奥林匹克运动会	-18130
年第五次人口普查	-18131
香港电影评论学会	-18132
Norwegian	-18133
▁Internet	-18134
中华人民共和国建立	-18135
宗教是中国民间信仰	-18136
社会主义人民共和国	-18137
经济合作与发展组织	-18138
银行间即期外汇市场	-18139
ECMAScript	-18140
▁Navigator	-18141
。1978-2008	-18142
中国共产党中央政治局	-18143
全国人大常委会委员长	-18144
年第六次全国人口普查	-18145
中央政治局常务委员会委员	-18146
台湾中华音乐人交流协会的	-18147
由台湾中华音乐人交流协会	-18148
以同期全国平均物价水平为基准	-18149
阿尔巴尼亚社会主义人民共和国	-18150
')	-18151
,"	-18152
.)	-18153
04	-18154
1)	-18155
2。	-18156
3:	-18157
6。	-18158
8°	-18159
>,	-18160
Ac	-18161
Ag	-18162
Be	-18163
CB	-18164
ET	-18165
IT	-18166
IV	-18167
KM	-18168
Kn	-18169
Li	-18170
MO	-18171
PC	-18172
RL	-18173
SG	-18174
Sh	-18175
Ta	-18176
UI	-18177
VM	-18178
_5	-18179
aj	-18180
co	-18181
hy	-18182
li	-18183
mb	-18184
pH	-18185
po	-18186
pr	-18187
sp	-18188
tu	-18189
uk	-18190
up	-18191
uz	-18192
“(	-18193
▁+	-18194
▁;	-18195
▁j	-18196
▁v	-18197
▁台	-18198
▁四	-18199
▁晋	-18200
▁若	-18201
▁被	-18202
▁陈	-18203
、「	-18204
一万	-18205
一周	-18206
一块	-18207
一字	-18208
一并	-18209
一月	-18210
七七	-18211
七星	-18212
万个	-18213
万宁	-18214
万象	-18215
三万	-18216
三倍	-18217
三公	-18218
三天	-18219
三岔	-18220
三座	-18221
三教	-18222
三日	-18223
三是	-18224
三洲	-18225
三王	-18226
三维	-18227
三色	-18228
上溯	-18229
不丹	-18230
不予	-18231
不休	-18232
不出	-18233
不单	-18234
不将	-18235
不已	-18236
不必	-18237
不稳	-18238
不高	-18239
与李	-18240
丑闻	-18241
专卖	-18242
且在	-18243
丕平	-18244
世上	-18245
世系	-18246
东川	-18247
东巴	-18248
东瓯	-18249
东疆	-18250
东起	-18251
东迁	-18252
东门	-18253
丝织	-18254
两万	-18255
两副	-18256
两天	-18257
两弹	-18258
两湖	-18259
严肃	-18260
中他	-18261
中古	-18262
中式	-18263
中是	-18264
中资	-18265
中路	-18266
中转	-18267
中途	-18268
丰台	-18269
丰收	-18270
临沂	-18271
临海	-18272
临近	-18273
丹霞	-18274
为基	-18275
为她	-18276
为新	-18277
丽莎	-18278
举家	-18279
举措	-18280
久远	-18281
义乌	-18282
义渠	-18283
之于	-18284
之先	-18285
之冠	-18286
之和	-18287
之孙	-18288
之心	-18289
之旅	-18290
之日	-18291
之术	-18292
之花	-18293
之风	-18294
乌浒	-18295
乐山	-18296
乐观	-18297
乘法	-18298
乘胜	-18299
乙己	-18300
九区	-18301
九章	-18302
也叫	-18303
也和	-18304
也已	-18305
也许	-18306
书生	-18307
书馆	-18308
乱世	-18309
乱象	-18310
了大	-18311
争相	-18312
事人	-18313
事先	-18314
二八	-18315
二千	-18316
于一	-18317
于现	-18318
五桥	-18319
亡国	-18320
交付	-18321
交代	-18322
交会	-18323
交州	-18324
交融	-18325
亦不	-18326
京东	-18327
京九	-18328
京包	-18329
京都	-18330
亶甲	-18331
人家	-18332
人梁	-18333
亿年	-18334
亿斤	-18335
什叶	-18336
什木	-18337
介质	-18338
仍以	-18339
仍由	-18340
仓库	-18341
他以	-18342
他更	-18343
付费	-18344
仙女	-18345
以与	-18346
以李	-18347
件事	-18348
伊凡	-18349
休息	-18350
优点	-18351
会党	-18352
伟人	-18353
传来	-18354
传给	-18355
但与	-18356
但此	-18357
但该	-18358
但遭	-18359
低速	-18360
住了	-18361
何启	-18362
佛法	-18363
佳绩	-18364
使之	-18365
例的	-18366
依山	-18367
侦测	-18368
侧面	-18369
侵占	-18370
便将	-18371
保路	-18372
修好	-18373
倒台	-18374
倒退	-18375
借贷	-18376
倭寇	-18377
债券	-18378
假传	-18379
假想	-18380
偏北	-18381
偏重	-18382
偏高	-18383
做了	-18384
停刊	-18385
停留	-18386
停车	-18387
停顿	-18388
偶然	-18389
僧孺	-18390
儿玉	-18391
儿科	-18392
元宵	-18393
元济	-18394
充斥	-18395
先于	-18396
先师	-18397
先有	-18398
光速	-18399
克劳	-18400
克孜	-18401
党史	-18402
党徽	-18403
党羽	-18404
党项	-18405
入京	-18406
入蜀	-18407
全家	-18408
全盘	-18409
全真	-18410
全程	-18411
八字	-18412
八景	-18413
公文	-18414
公河	-18415
公职	-18416
公转	-18417
公馆	-18418
六次	-18419
六经	-18420
兰卡	-18421
兰屿	-18422
兰新	-18423
共主	-18424
共处	-18425
共存	-18426
共进	-18427
关陇	-18428
兴仁	-18429
兴修	-18430
兴旺	-18431
兵士	-18432
其原	-18433
养成	-18434
养毅	-18435
内亚	-18436
内山	-18437
内建	-18438
内流	-18439
内环	-18440
内瑞	-18441
内页	-18442
再到	-18443
再现	-18444
写信	-18445
军从	-18446
军和	-18447
军工	-18448
军府	-18449
军歌	-18450
军用	-18451
农工	-18452
冰期	-18453
冰河	-18454
冲星	-18455
决裂	-18456
冶炼	-18457
净土	-18458
减至	-18459
几大	-18460
凡是	-18461
凭证	-18462
凯撒	-18463
凯郭	-18464
出世	-18465
出去	-18466
出演	-18467
出色	-18468
击剑	-18469
击破	-18470
分区	-18471
分币	-18472
分数	-18473
分校	-18474
分泌	-18475
分管	-18476
分行	-18477
刘剑	-18478
刘渊	-18479
刘玄	-18480
刘秀	-18481
刘铭	-18482
则因	-18483
则称	-18484
创世	-18485
创制	-18486
判例	-18487
利息	-18488
别墅	-18489
前五	-18490
前面	-18491
剿共	-18492
办学	-18493
功勋	-18494
加减	-18495
加密	-18496
加收	-18497
加注	-18498
加载	-18499
动工	-18500
劳力	-18501
劳役	-18502
募兵	-18503
化等	-18504
区与	-18505
区位	-18506
千人	-18507
升值	-18508
升入	-18509
升高	-18510
半群	-18511
华严	-18512
华龙	-18513
南临	-18514
南充	-18515
南唐	-18516
南坡	-18517
南城	-18518
南子	-18519
南巡	-18520
南极	-18521
南桐	-18522
南盘	-18523
南移	-18524
南阳	-18525
占卜	-18526
卡特	-18527
卡罗	-18528
卢布	-18529
卫所	-18530
卫视	-18531
即便	-18532
即已	-18533
却因	-18534
历年	-18535
历次	-18536
厉王	-18537
压倒	-18538
厘清	-18539
原味	-18540
原型	-18541
原意	-18542
原油	-18543
去了	-18544
县治	-18545
参战	-18546
参阅	-18547
又于	-18548
又因	-18549
及于	-18550
及后	-18551
及外	-18552
及对	-18553
及时	-18554
反右	-18555
反袁	-18556
反过	-18557
反驳	-18558
发作	-18559
发兵	-18560
取胜	-18561
取道	-18562
受命	-18563
受害	-18564
受洗	-18565
古尔	-18566
古称	-18567
句子	-18568
只在	-18569
只得	-18570
只用	-18571
可从	-18572
可夫	-18573
可惜	-18574
可行	-18575
台币	-18576
史朝	-18577
司空	-18578
各县	-18579
合浦	-18580
合适	-18581
合金	-18582
吉亚	-18583
吉甫	-18584
同下	-18585
同人	-18586
同级	-18587
同胞	-18588
名医	-18589
后与	-18590
后再	-18591
后周	-18592
后因	-18593
后就	-18594
后蜀	-18595
后赵	-18596
吏部	-18597
向来	-18598
吕宋	-18599
否认	-18600
听信	-18601
启事	-18602
启民	-18603
启程	-18604
吾党	-18605
周建	-18606
周末	-18607
周福	-18608
呼声	-18609
命的	-18610
命脉	-18611
和三	-18612
和公	-18613
和园	-18614
和文	-18615
和无	-18616
和水	-18617
和火	-18618
和让	-18619
和非	-18620
和马	-18621
和龙	-18622
哀公	-18623
哈大	-18624
哈尼	-18625
哈达	-18626
哺乳	-18627
唐书	-18628
唐努	-18629
唐绍	-18630
唐继	-18631
唱游	-18632
嘉南	-18633
器具	-18634
四千	-18635
四国	-18636
四子	-18637
四家	-18638
四次	-18639
四级	-18640
四行	-18641
四诊	-18642
四郡	-18643
四项	-18644
回乡	-18645
回教	-18646
因于	-18647
固守	-18648
固有	-18649
国境	-18650
圆弧	-18651
土匪	-18652
土家	-18653
土楼	-18654
土等	-18655
在世	-18656
在台	-18657
在学	-18658
在对	-18659
在有	-18660
在海	-18661
在非	-18662
地为	-18663
地在	-18664
地层	-18665
地标	-18666
地王	-18667
地盘	-18668
地道	-18669
场的	-18670
坚定	-18671
垦为	-18672
垦荒	-18673
埃拉	-18674
城楼	-18675
城隍	-18676
域名	-18677
培根	-18678
堂等	-18679
堪的	-18680
塔克	-18681
塔城	-18682
塔能	-18683
塞琉	-18684
填海	-18685
增产	-18686
士气	-18687
声望	-18688
声誉	-18689
复叛	-18690
复线	-18691
夏代	-18692
夏后	-18693
夏室	-18694
外文	-18695
外长	-18696
多份	-18697
多场	-18698
多米	-18699
多葛	-18700
大名	-18701
大官	-18702
大定	-18703
大封	-18704
大捷	-18705
大概	-18706
大略	-18707
大破	-18708
大芬	-18709
大门	-18710
大马	-18711
天佑	-18712
天使	-18713
天台	-18714
天坛	-18715
天堂	-18716
天才	-18717
太极	-18718
太鲁	-18719
失控	-18720
失踪	-18721
夺权	-18722
奇怪	-18723
奇特	-18724
奖的	-18725
女权	-18726
好人	-18727
妇人	-18728
姆渡	-18729
始创	-18730
始至	-18731
姚崇	-18732
婆罗	-18733
婚后	-18734
嫩江	-18735
子和	-18736
子等	-18737
子路	-18738
孔丘	-18739
孔孟	-18740
字节	-18741
字词	-18742
存放	-18743
存活	-18744
孙敬	-18745
孝宗	-18746
季度	-18747
季陶	-18748
学龄	-18749
它所	-18750
守卫	-18751
守备	-18752
安乐	-18753
安茹	-18754
完好	-18755
宏村	-18756
宗棠	-18757
官修	-18758
官署	-18759
定向	-18760
定型	-18761
定襄	-18762
宜兰	-18763
实为	-18764
实物	-18765
宠信	-18766
审核	-18767
宣和	-18768
宣城	-18769
害怕	-18770
家嘴	-18771
家坪	-18772
家用	-18773
家禽	-18774
家道	-18775
容许	-18776
宽阔	-18777
密云	-18778
富兰	-18779
寒浞	-18780
寒潮	-18781
对他	-18782
对流	-18783
导航	-18784
寿县	-18785
将要	-18786
尊为	-18787
小姐	-18788
小河	-18789
小甲	-18790
小米	-18791
少见	-18792
尔后	-18793
尔曼	-18794
尔贝	-18795
尔达	-18796
尚在	-18797
尚存	-18798
就不	-18799
就与	-18800
就能	-18801
尼可	-18802
尼基	-18803
尼布	-18804
屏障	-18805
展出	-18806
屯垦	-18807
屯田	-18808
屯门	-18809
山上	-18810
岐盛	-18811
岸的	-18812
崇祯	-18813
川主	-18814
川峡	-18815
川菜	-18816
川边	-18817
州则	-18818
巡检	-18819
工部	-18820
左翼	-18821
巨头	-18822
巴布	-18823
巴林	-18824
市中	-18825
布政	-18826
希波	-18827
带和	-18828
带电	-18829
席勒	-18830
帮忙	-18831
常以	-18832
常会	-18833
常备	-18834
常设	-18835
干布	-18836
平反	-18837
平稳	-18838
年亚	-18839
年从	-18840
年会	-18841
年冬	-18842
年居	-18843
年是	-18844
年灭	-18845
年版	-18846
年第	-18847
年级	-18848
年鉴	-18849
年首	-18850
并设	-18851
幸存	-18852
幼发	-18853
幼稚	-18854
库伦	-18855
库页	-18856
应为	-18857
府中	-18858
府管	-18859
康王	-18860
康雍	-18861
建政	-18862
建武	-18863
开学	-18864
开明	-18865
开端	-18866
开罗	-18867
异地	-18868
弗兰	-18869
张之	-18870
张华	-18871
张泓	-18872
张申	-18873
张继	-18874
张骞	-18875
弥漫	-18876
弹劾	-18877
强度	-18878
强行	-18879
形同	-18880
影史	-18881
影院	-18882
影音	-18883
往返	-18884
征调	-18885
征集	-18886
待人	-18887
很长	-18888
徐克	-18889
御史	-18890
徭役	-18891
德兴	-18892
德和	-18893
德拉	-18894
心脏	-18895
必经	-18896
忠诚	-18897
怀孕	-18898
怀念	-18899
怒江	-18900
恋情	-18901
息息	-18902
惠宗	-18903
惩罚	-18904
意即	-18905
意象	-18906
愤怒	-18907
成一	-18908
成名	-18909
成群	-18910
或在	-18911
战中	-18912
战功	-18913
战死	-18914
战绩	-18915
戛纳	-18916
截然	-18917
所创	-18918
所设	-18919
所限	-18920
手稿	-18921
打响	-18922
打工	-18923
打进	-18924
执掌	-18925
批孔	-18926
承包	-18927
承载	-18928
投下	-18929
抗争	-18930
抗生	-18931
折合	-18932
抚区	-18933
抚西	-18934
护龙	-18935
报酬	-18936
抽样	-18937
拆码	-18938
拉格	-18939
拉比	-18940
拉脱	-18941
拉里	-18942
拔河	-18943
拔萃	-18944
拘留	-18945
招收	-18946
拜访	-18947
拥堵	-18948
拿来	-18949
挑选	-18950
挤压	-18951
挺进	-18952
捆绑	-18953
捕鱼	-18954
据此	-18955
排华	-18956
接入	-18957
接掌	-18958
控管	-18959
掳掠	-18960
提案	-18961
提醒	-18962
揭开	-18963
援引	-18964
摩擦	-18965
撒拉	-18966
撞击	-18967
播种	-18968
收购	-18969
改写	-18970
改建	-18971
改易	-18972
改观	-18973
改道	-18974
攻伐	-18975
攻取	-18976
攻读	-18977
放纵	-18978
放缓	-18979
放逐	-18980
政于	-18981
政客	-18982
效法	-18983
敕令	-18984
教仪	-18985
教养	-18986
教务	-18987
教化	-18988
教区	-18989
敬畏	-18990
数以	-18991
数及	-18992
文类	-18993
斟鄩	-18994
断代	-18995
断定	-18996
斯人	-18997
新南	-18998
新娘	-18999
新港	-19000
新郑	-19001
新陈	-19002
施工	-19003
施琅	-19004
族人	-19005
旗下	-19006
无辜	-19007
日出	-19008
日蚀	-19009
旧的	-19010
旧臣	-19011
旧金	-19012
旭仔	-19013
时事	-19014
时属	-19015
时针	-19016
昆虫	-19017
昌盛	-19018
明廷	-19019
明的	-19020
易帜	-19021
易燃	-19022
易经	-19023
星体	-19024
昭帝	-19025
是继	-19026
晋商	-19027
普世	-19028
普京	-19029
普勒	-19030
普陀	-19031
景色	-19032
晶体	-19033
暗沙	-19034
曝光	-19035
曲调	-19036
曲阜	-19037
更佳	-19038
更名	-19039
更大	-19040
更能	-19041
更迭	-19042
曾用	-19043
曾说	-19044
替换	-19045
最常	-19046
最深	-19047
最远	-19048
月由	-19049
有声	-19050
有害	-19051
有待	-19052
有成	-19053
服制	-19054
朗诵	-19055
朝中	-19056
朝歌	-19057
木偶	-19058
未获	-19059
未解	-19060
末日	-19061
本帮	-19062
朱安	-19063
朱泚	-19064
机电	-19065
杀了	-19066
李守	-19067
李晟	-19068
李烈	-19069
李肇	-19070
李虎	-19071
杜绝	-19072
来作	-19073
来对	-19074
杨森	-19075
杰作	-19076
极地	-19077
极富	-19078
林木	-19079
林胡	-19080
枢密	-19081
某某	-19082
柳宗	-19083
标识	-19084
格拉	-19085
桂系	-19086
桥等	-19087
梅兰	-19088
检讨	-19089
棉布	-19090
楷书	-19091
楼烦	-19092
模糊	-19093
橡胶	-19094
欠缺	-19095
次序	-19096
欢乐	-19097
欲望	-19098
欺骗	-19099
歌坛	-19100
歌声	-19101
正值	-19102
正德	-19103
此地	-19104
步伽	-19105
武侠	-19106
武功	-19107
武庚	-19108
武斗	-19109
武道	-19110
死在	-19111
死者	-19112
殡仪	-19113
殿中	-19114
比锡	-19115
民办	-19116
气喘	-19117
氢键	-19118
水产	-19119
水位	-19120
水西	-19121
水门	-19122
永兴	-19123
永历	-19124
汇报	-19125
汇聚	-19126
汉医	-19127
汉堡	-19128
汉文	-19129
池州	-19130
汶口	-19131
沃甲	-19132
沈丹	-19133
沙井	-19134
沙拉	-19135
沙钵	-19136
河段	-19137
河畔	-19138
河镇	-19139
治下	-19140
治法	-19141
泄漏	-19142
法师	-19143
法术	-19144
波利	-19145
波里	-19146
波音	-19147
注射	-19148
泸沽	-19149
洗劫	-19150
洛布	-19151
洞人	-19152
津浦	-19153
洱海	-19154
派之	-19155
流体	-19156
流向	-19157
流感	-19158
流放	-19159
流星	-19160
流程	-19161
济棠	-19162
浙菜	-19163
浮现	-19164
海底	-19165
海德	-19166
海棠	-19167
涵义	-19168
涵养	-19169
淡出	-19170
淡化	-19171
混杂	-19172
清兵	-19173
清晨	-19174
渴望	-19175
游记	-19176
游说	-19177
湖是	-19178
湛江	-19179
湿度	-19180
源县	-19181
滋病	-19182
滑雪	-19183
滚石	-19184
滞后	-19185
滩涂	-19186
演技	-19187
漫画	-19188
潮汐	-19189
激素	-19190
火烧	-19191
灭南	-19192
灯光	-19193
灵帝	-19194
灵柩	-19195
炳麟	-19196
热力	-19197
热爱	-19198
热的	-19199
熊猫	-19200
爱乐	-19201
爱琴	-19202
片中	-19203
版为	-19204
牛奶	-19205
牛斯	-19206
牧业	-19207
物的	-19208
牵制	-19209
特人	-19210
特务	-19211
犹豫	-19212
独流	-19213
猛烈	-19214
玄学	-19215
率和	-19216
率是	-19217
玉山	-19218
玉林	-19219
玉皇	-19220
王之	-19221
王府	-19222
王祖	-19223
王维	-19224
玫瑰	-19225
环形	-19226
玷污	-19227
玻璃	-19228
琅琊	-19229
瑞安	-19230
甘蔗	-19231
甚为	-19232
甚多	-19233
生子	-19234
生理	-19235
生等	-19236
用车	-19237
田园	-19238
由李	-19239
电灯	-19240
电离	-19241
男爵	-19242
画坛	-19243
界河	-19244
疆界	-19245
疏勒	-19246
痛的	-19247
白山	-19248
百人	-19249
百官	-19250
百部	-19251
的北	-19252
的家	-19253
的对	-19254
的巨	-19255
的数	-19256
的确	-19257
的车	-19258
的远	-19259
的重	-19260
的马	-19261
皆可	-19262
皇朝	-19263
皈依	-19264
盐湖	-19265
直径	-19266
直达	-19267
相仿	-19268
相恋	-19269
相接	-19270
相隔	-19271
省略	-19272
省立	-19273
省道	-19274
看来	-19275
真人	-19276
真菌	-19277
真诚	-19278
着重	-19279
督察	-19280
石林	-19281
矿区	-19282
研读	-19283
硬碟	-19284
礼堂	-19285
社论	-19286
祖丁	-19287
祖辛	-19288
祝由	-19289
神仙	-19290
神甫	-19291
禁忌	-19292
禅位	-19293
福音	-19294
禹贡	-19295
秀山	-19296
私塾	-19297
种群	-19298
科特	-19299
科系	-19300
租赁	-19301
秧歌	-19302
积温	-19303
称霸	-19304
移入	-19305
移驻	-19306
稻谷	-19307
空白	-19308
穿越	-19309
穿透	-19310
突发	-19311
窝阔	-19312
窦靖	-19313
站在	-19314
笃信	-19315
等书	-19316
等价	-19317
等到	-19318
筑城	-19319
筹建	-19320
简便	-19321
管仲	-19322
管网	-19323
篇幅	-19324
米兰	-19325
类等	-19326
粮仓	-19327
精细	-19328
精美	-19329
系数	-19330
紧邻	-19331
红嘴	-19332
红豆	-19333
纲目	-19334
纲要	-19335
纳谏	-19336
线至	-19337
组的	-19338
细致	-19339
经纬	-19340
绝迹	-19341
绰号	-19342
缔造	-19343
编修	-19344
编入	-19345
编组	-19346
缺席	-19347
网民	-19348
罗夫	-19349
罗宋	-19350
罗森	-19351
美化	-19352
美尼	-19353
美金	-19354
翰林	-19355
老鼠	-19356
者们	-19357
而他	-19358
而建	-19359
而异	-19360
而当	-19361
耕种	-19362
聂荣	-19363
职官	-19364
联名	-19365
肿瘤	-19366
胶卷	-19367
能否	-19368
能说	-19369
自缢	-19370
至高	-19371
致知	-19372
舞剧	-19373
色目	-19374
节约	-19375
芝麻	-19376
芝龙	-19377
花了	-19378
花样	-19379
苏军	-19380
苏台	-19381
苕溪	-19382
英王	-19383
英美	-19384
草拟	-19385
草药	-19386
荒谬	-19387
荔枝	-19388
菁英	-19389
菩萨	-19390
萨珊	-19391
著的	-19392
蔓延	-19393
薪资	-19394
藏语	-19395
虹口	-19396
虽有	-19397
蜿蜒	-19398
行事	-19399
行进	-19400
行销	-19401
衢州	-19402
补偿	-19403
补选	-19404
表记	-19405
衰弱	-19406
衰微	-19407
衰败	-19408
被废	-19409
被选	-19410
裁军	-19411
裁撤	-19412
西京	-19413
西川	-19414
西开	-19415
西式	-19416
西戎	-19417
西沙	-19418
西起	-19419
西进	-19420
西餐	-19421
要在	-19422
要将	-19423
要职	-19424
覆灭	-19425
规画	-19426
规矩	-19427
视察	-19428
视野	-19429
角觝	-19430
解脱	-19431
计有	-19432
计的	-19433
讲课	-19434
论战	-19435
设为	-19436
访华	-19437
证书	-19438
诉求	-19439
词曲	-19440
词语	-19441
词谱	-19442
译本	-19443
话和	-19444
该曲	-19445
该病	-19446
详尽	-19447
语境	-19448
语气	-19449
误会	-19450
误差	-19451
说在	-19452
说道	-19453
诺派	-19454
读写	-19455
调剂	-19456
调解	-19457
谈论	-19458
谋杀	-19459
谜语	-19460
谨慎	-19461
谯郡	-19462
谱曲	-19463
谱线	-19464
豫园	-19465
贝当	-19466
败退	-19467
质性	-19468
贬值	-19469
贵妃	-19470
贺龙	-19471
资深	-19472
赐名	-19473
赤眉	-19474
赫特	-19475
走出	-19476
超导	-19477
越人	-19478
越大	-19479
越高	-19480
践踏	-19481
跻身	-19482
踪迹	-19483
身后	-19484
躲避	-19485
车厢	-19486
转成	-19487
轮船	-19488
载客	-19489
较好	-19490
输气	-19491
辗转	-19492
辞典	-19493
辞汇	-19494
辨症	-19495
辽源	-19496
达头	-19497
达致	-19498
过后	-19499
过多	-19500
迎立	-19501
迎风	-19502
运往	-19503
近于	-19504
还都	-19505
这使	-19506
这套	-19507
这词	-19508
进了	-19509
远超	-19510
连山	-19511
连锁	-19512
退回	-19513
退让	-19514
送到	-19515
逃至	-19516
选字	-19517
递增	-19518
递归	-19519
通史	-19520
通告	-19521
通鉴	-19522
造币	-19523
造林	-19524
造诣	-19525
逼使	-19526
逾越	-19527
遇难	-19528
道夫	-19529
道观	-19530
遥远	-19531
遭人	-19532
邢台	-19533
邦国	-19534
部属	-19535
都司	-19536
酒泉	-19537
采矿	-19538
里尔	-19539
里所	-19540
重阳	-19541
野兽	-19542
量度	-19543
金币	-19544
金帐	-19545
金庸	-19546
金衢	-19547
鉴定	-19548
钢桥	-19549
钱江	-19550
铁的	-19551
铃木	-19552
铜像	-19553
铜牌	-19554
铜鼓	-19555
铲除	-19556
银杏	-19557
锣鼓	-19558
镜湖	-19559
镰刀	-19560
镶嵌	-19561
长兄	-19562
长大	-19563
长女	-19564
长崎	-19565
门口	-19566
阖闾	-19567
防洪	-19568
阳光	-19569
阴天	-19570
附件	-19571
陆栖	-19572
陇海	-19573
陈嘉	-19574
降将	-19575
降服	-19576
限定	-19577
院的	-19578
院系	-19579
陵水	-19580
陵王	-19581
隆庆	-19582
随同	-19583
隐含	-19584
隐居	-19585
隧道	-19586
集成	-19587
雨林	-19588
震动	-19589
霍尔	-19590
青木	-19591
青睐	-19592
靖难	-19593
静止	-19594
面体	-19595
面前	-19596
靺鞨	-19597
韩非	-19598
音色	-19599
韵文	-19600
韵母	-19601
页岩	-19602
顾及	-19603
预先	-19604
领兵	-19605
风和	-19606
风筝	-19607
风能	-19608
风行	-19609
飞地	-19610
饮茶	-19611
饲养	-19612
馆藏	-19613
首尔	-19614
首席	-19615
香槟	-19616
马云	-19617
马列	-19618
马萨	-19619
驸马	-19620
骨灰	-19621
高效	-19622
高斯	-19623
高砂	-19624
高考	-19625
高耸	-19626
高过	-19627
高阶	-19628
鹤龄	-19629
鹿港	-19630
麻将	-19631
麻醉	-19632
黄冈	-19633
黎明	-19634
默许	-19635
齐军	-19636
龙岩	-19637
龙泉	-19638
(2)	-19639
(3)	-19640
(50	-19641
(64	-19642
(66	-19643
(88	-19644
(99	-19645
)”。	-19646
)、「	-19647
)」,	-19648
,25	-19649
,46	-19650
.00	-19651
.05	-19652
.0°	-19653
.13	-19654
.16	-19655
.22	-19656
.23	-19657
.25	-19658
.2°	-19659
.31	-19660
.43	-19661
.56	-19662
.65	-19663
.84	-19664
.94	-19665
.95	-19666
0.4	-19667
10,	-19668
126	-19669
143	-19670
145	-19671
15′	-19672
166	-19673
171	-19674
172	-19675
2,8	-19676
2,9	-19677
2.9	-19678
206	-19679
207	-19680
208	-19681
20°	-19682
238	-19683
27%	-19684
320	-19685
345	-19686
356	-19687
370	-19688
38°	-19689
4.5	-19690
4.8	-19691
420	-19692
440	-19693
473	-19694
480	-19695
486	-19696
499	-19697
546	-19698
55%	-19699
570	-19700
585	-19701
596	-19702
657	-19703
698	-19704
763	-19705
911	-19706
960	-19707
99%	-19708
>),	-19709
>^2	-19710
Arm	-19711
BAS	-19712
For	-19713
Hen	-19714
IMU	-19715
Mar	-19716
Mon	-19717
Ole	-19718
PEC	-19719
Ser	-19720
Tra	-19721
Tub	-19722
WTO	-19723
ace	-19724
act	-19725
ame	-19726
anc	-19727
arn	-19728
ars	-19729
ati	-19730
bun	-19731
cte	-19732
deb	-19733
der	-19734
ean	-19735
ety	-19736
hod	-19737
iam	-19738
iew	-19739
[...]
